{
  "version": "1.0",
  "truncation": null,
  "padding": null,
  "added_tokens": [
    {
      "id": 0,
      "content": "[PAD]",
      "single_word": false,
      "lstrip": false,
      "rstrip": false,
      "normalized": false,
      "special": true
    },
    {
      "id": 1,
      "content": "[UNK]",
      "single_word": false,
      "lstrip": false,
      "rstrip": false,
      "normalized": false,
      "special": true
    },
    {
      "id": 2,
      "content": "[CLS]",
      "single_word": false,
      "lstrip": false,
      "rstrip": false,
      "normalized": false,
      "special": true
    },
    {
      "id": 3,
      "content": "[SEP]",
      "single_word": false,
      "lstrip": false,
      "rstrip": false,
      "normalized": false,
      "special": true
    },
    {
      "id": 4,
      "content": "[MASK]",
      "single_word": false,
      "lstrip": false,
      "rstrip": false,
      "normalized": false,
      "special": true
    }
  ],
  "normalizer": null,
  "pre_tokenizer": {
    "type": "Whitespace"
  },
  "post_processor": null,
  "decoder": null,
  "model": {
    "type": "WordPiece",
    "unk_token": "[UNK]",
    "continuing_subword_prefix": "##",
    "max_input_chars_per_word": 100,
    "vocab": {
      "[PAD]": 0,
      "[UNK]": 1,
      "[CLS]": 2,
      "[SEP]": 3,
      "[MASK]": 4,
      "!": 5,
      "#": 6,
      "$": 7,
      "&": 8,
      "'": 9,
      "(": 10,
      ")": 11,
      "*": 12,
      "+": 13,
      ",": 14,
      "-": 15,
      ".": 16,
      "/": 17,
      "0": 18,
      "1": 19,
      "2": 20,
      "3": 21,
      "4": 22,
      "5": 23,
      "6": 24,
      "7": 25,
      "8": 26,
      "9": 27,
      ":": 28,
      ";": 29,
      "=": 30,
      "?": 31,
      "`": 32,
      "a": 33,
      "b": 34,
      "c": 35,
      "d": 36,
      "e": 37,
      "f": 38,
      "g": 39,
      "h": 40,
      "i": 41,
      "j": 42,
      "k": 43,
      "l": 44,
      "m": 45,
      "n": 46,
      "o": 47,
      "p": 48,
      "q": 49,
      "r": 50,
      "s": 51,
      "t": 52,
      "u": 53,
      "v": 54,
      "w": 55,
      "x": 56,
      "y": 57,
      "z": 58,
      "â": 59,
      "ã": 60,
      "æ": 61,
      "é": 62,
      "í": 63,
      "ï": 64,
      "ñ": 65,
      "ó": 66,
      "ü": 67,
      "##a": 68,
      "##n": 69,
      "##e": 70,
      "##r": 71,
      "##l": 72,
      "##g": 73,
      "##u": 74,
      "##d": 75,
      "##i": 76,
      "##o": 77,
      "##k": 78,
      "##m": 79,
      "##t": 80,
      "##s": 81,
      "##f": 82,
      "##y": 83,
      "##c": 84,
      "##x": 85,
      "##v": 86,
      "##z": 87,
      "##h": 88,
      "##p": 89,
      "##b": 90,
      "##w": 91,
      "##9": 92,
      "##5": 93,
      "##q": 94,
      "##3": 95,
      "##8": 96,
      "##0": 97,
      "##4": 98,
      "##6": 99,
      "##ï": 100,
      "##é": 101,
      "##j": 102,
      "##7": 103,
      "##â": 104,
      "##ñ": 105,
      "##1": 106,
      "##ü": 107,
      "##*": 108,
      "##ó": 109,
      "##í": 110,
      "##ã": 111,
      "##2": 112,
      "##`": 113,
      "##-": 114,
      "##æ": 115,
      "##.": 116,
      "##'": 117,
      "th": 118,
      "##in": 119,
      "##er": 120,
      "the": 121,
      "##es": 122,
      "##nd": 123,
      "##at": 124,
      "##ing": 125,
      "##or": 126,
      "##en": 127,
      "##on": 128,
      "##ar": 129,
      "and": 130,
      "of": 131,
      "##ou": 132,
      "##ed": 133,
      "##al": 134,
      "##ly": 135,
      "##it": 136,
      "##an": 137,
      "##is": 138,
      "##ic": 139,
      "in": 140,
      "to": 141,
      "##re": 142,
      "##om": 143,
      "##il": 144,
      "##le": 145,
      "it": 146,
      "##el": 147,
      "##as": 148,
      "##ct": 149,
      "##ion": 150,
      "##ent": 151,
      "is": 152,
      "##ot": 153,
      "##ut": 154,
      "st": 155,
      "##st": 156,
      "that": 157,
      "##ve": 158,
      "be": 159,
      "##ul": 160,
      "mo": 161,
      "an": 162,
      "##ch": 163,
      "##ce": 164,
      "##ra": 165,
      "##gh": 166,
      "##ie": 167,
      "re": 168,
      "on": 169,
      "##ess": 170,
      "##et": 171,
      "##im": 172,
      "##ow": 173,
      "wh": 174,
      "as": 175,
      "wit": 176,
      "fil": 177,
      "##id": 178,
      "film": 179,
      "##ir": 180,
      "##ol": 181,
      "su": 182,
      "ch": 183,
      "##ver": 184,
      "##ad": 185,
      "for": 186,
      "with": 187,
      "##ter": 188,
      "com": 189,
      "mov": 190,
      "##oo": 191,
      "##ay": 192,
      "##se": 193,
      "##ak": 194,
      "##ab": 195,
      "##ers": 196,
      "##un": 197,
      "##est": 198,
      "##ur": 199,
      "li": 200,
      "you": 201,
      "se": 202,
      "##am": 203,
      "its": 204,
      "##ri": 205,
      "##um": 206,
      "en": 207,
      "##ro": 208,
      "##ous": 209,
      "al": 210,
      "##ag": 211,
      "##ck": 212,
      "##em": 213,
      "movie": 214,
      "ex": 215,
      "this": 216,
      "##ive": 217,
      "un": 218,
      "sh": 219,
      "##th": 220,
      "##ation": 221,
      "##ist": 222,
      "con": 223,
      "wor": 224,
      "fr": 225,
      "##ght": 226,
      "##ill": 227,
      "##ful": 228,
      "de": 229,
      "##ant": 230,
      "ha": 231,
      "##ear": 232,
      "ab": 233,
      "##ld": 234,
      "##ally": 235,
      "##ell": 236,
      "sc": 237,
      "##ore": 238,
      "##out": 239,
      "##ain": 240,
      "not": 241,
      "##able": 242,
      "sp": 243,
      "##op": 244,
      "at": 245,
      "but": 246,
      "di": 247,
      "int": 248,
      "##ke": 249,
      "##ate": 250,
      "do": 251,
      "##ect": 252,
      "##ood": 253,
      "##ast": 254,
      "##ap": 255,
      "so": 256,
      "##ff": 257,
      "##ity": 258,
      "char": 259,
      "##ory": 260,
      "act": 261,
      "by": 262,
      "##act": 263,
      "##us": 264,
      "##ig": 265,
      "##ure": 266,
      "ne": 267,
      "##ight": 268,
      "##ich": 269,
      "pro": 270,
      "##ust": 271,
      "im": 272,
      "--": 273,
      "##ies": 274,
      "som": 275,
      "##her": 276,
      "like": 277,
      "pl": 278,
      "one": 279,
      "fe": 280,
      "##ough": 281,
      "all": 282,
      "cl": 283,
      "or": 284,
      "##ud": 285,
      "than": 286,
      "more": 287,
      "##ious": 288,
      "##ence": 289,
      "##ort": 290,
      "from": 291,
      "about": 292,
      "fun": 293,
      "lo": 294,
      "per": 295,
      "has": 296,
      "##ind": 297,
      "mak": 298,
      "tr": 299,
      "##and": 300,
      "##pp": 301,
      "##ack": 302,
      "##ong": 303,
      "##ge": 304,
      "are": 305,
      "##ere": 306,
      "##qu": 307,
      "##pt": 308,
      "##one": 309,
      "his": 310,
      "##art": 311,
      "##ick": 312,
      "man": 313,
      "out": 314,
      "##pl": 315,
      "have": 316,
      "charact": 317,
      "##hing": 318,
      "le": 319,
      "fl": 320,
      "##all": 321,
      "po": 322,
      "##itt": 323,
      "##ven": 324,
      "##ould": 325,
      "story": 326,
      "##ces": 327,
      "who": 328,
      "good": 329,
      "##ny": 330,
      "perf": 331,
      "ever": 332,
      "##ial": 333,
      "##reat": 334,
      "##ard": 335,
      "##ance": 336,
      "ar": 337,
      "tim": 338,
      "##per": 339,
      "most": 340,
      "comed": 341,
      "##og": 342,
      "hum": 343,
      "##pr": 344,
      "up": 345,
      "thr": 346,
      "pr": 347,
      "##au": 348,
      "no": 349,
      "##rect": 350,
      "am": 351,
      "##ine": 352,
      "work": 353,
      "##orm": 354,
      "direct": 355,
      "..": 356,
      "...": 357,
      "##iv": 358,
      "##ating": 359,
      "qu": 360,
      "##ble": 361,
      "##ish": 362,
      "too": 363,
      "##os": 364,
      "##nder": 365,
      "##ict": 366,
      "##oy": 367,
      "br": 368,
      "we": 369,
      "##ery": 370,
      "some": 371,
      "bl": 372,
      "he": 373,
      "off": 374,
      "##ical": 375,
      "comedy": 376,
      "cr": 377,
      "into": 378,
      "##ep": 379,
      "ad": 380,
      "any": 381,
      "##ac": 382,
      "##ment": 383,
      "##tain": 384,
      "##ook": 385,
      "##ue": 386,
      "funny": 387,
      "##are": 388,
      "##ated": 389,
      "em": 390,
      "##elf": 391,
      "##com": 392,
      "##ens": 393,
      "perform": 394,
      "comp": 395,
      "##our": 396,
      "##od": 397,
      "##ram": 398,
      "just": 399,
      "mu": 400,
      "##ark": 401,
      "##iz": 402,
      "##ass": 403,
      "pre": 404,
      "##sp": 405,
      "##ense": 406,
      "##ingly": 407,
      "##ise": 408,
      "sl": 409,
      "##ide": 410,
      "dis": 411,
      "well": 412,
      "us": 413,
      "end": 414,
      "##ound": 415,
      "feel": 416,
      "##ec": 417,
      "##atch": 418,
      "##ative": 419,
      "lif": 420,
      "your": 421,
      "will": 422,
      "##ull": 423,
      "what": 424,
      "sub": 425,
      "can": 426,
      "##if": 427,
      "characters": 428,
      "much": 429,
      "over": 430,
      "##av": 431,
      "##ry": 432,
      "time": 433,
      "##ult": 434,
      "bad": 435,
      "##ite": 436,
      "##ittle": 437,
      "little": 438,
      "##ary": 439,
      "gen": 440,
      "##ip": 441,
      "##ile": 442,
      "##own": 443,
      "sm": 444,
      "does": 445,
      "even": 446,
      "every": 447,
      "ro": 448,
      "##age": 449,
      "##ice": 450,
      "me": 451,
      "##less": 452,
      "##ual": 453,
      "if": 454,
      "te": 455,
      "##ty": 456,
      "##reen": 457,
      "``": 458,
      "##cc": 459,
      "''": 460,
      "min": 461,
      "very": 462,
      "enter": 463,
      "inter": 464,
      "##ily": 465,
      "life": 466,
      "tw": 467,
      "her": 468,
      "way": 469,
      "real": 470,
      "love": 471,
      "##ness": 472,
      "which": 473,
      "imp": 474,
      "##ience": 475,
      "hear": 476,
      "##ss": 477,
      "sur": 478,
      "bet": 479,
      "del": 480,
      "gr": 481,
      "##ves": 482,
      "their": 483,
      "##ade": 484,
      "them": 485,
      "go": 486,
      "tal": 487,
      "##vel": 488,
      "str": 489,
      "best": 490,
      "##ber": 491,
      "entertain": 492,
      "##ling": 493,
      "##int": 494,
      "rem": 495,
      "seem": 496,
      "watch": 497,
      "##ace": 498,
      "##we": 499,
      "##ash": 500,
      "##ame": 501,
      "director": 502,
      "hol": 503,
      "look": 504,
      "##ents": 505,
      "##fully": 506,
      "humor": 507,
      "##ath": 508,
      "screen": 509,
      "heart": 510,
      "ser": 511,
      "##ances": 512,
      "see": 513,
      "war": 514,
      "des": 515,
      "vis": 516,
      "##ild": 517,
      "##atic": 518,
      "through": 519,
      "dram": 520,
      "##ach": 521,
      "only": 522,
      "action": 523,
      "minut": 524,
      "tra": 525,
      "wr": 526,
      "##get": 527,
      "been": 528,
      "tak": 529,
      "##oc": 530,
      "somet": 531,
      "##ne": 532,
      "##ional": 533,
      "id": 534,
      "long": 535,
      "##ond": 536,
      "##ions": 537,
      "##oth": 538,
      "make": 539,
      "ag": 540,
      "col": 541,
      "##ater": 542,
      "##ings": 543,
      "##ans": 544,
      "cin": 545,
      "movies": 546,
      "cinem": 547,
      "app": 548,
      "was": 549,
      "##gin": 550,
      "cont": 551,
      "great": 552,
      "ind": 553,
      "year": 554,
      "##ph": 555,
      "gra": 556,
      "get": 557,
      "res": 558,
      "art": 559,
      "##ject": 560,
      "new": 561,
      "##augh": 562,
      "made": 563,
      "##aw": 564,
      "##ost": 565,
      "##leas": 566,
      "never": 567,
      "my": 568,
      "oth": 569,
      "##ink": 570,
      "aud": 571,
      "##ning": 572,
      "fam": 573,
      "##aut": 574,
      "plot": 575,
      "pe": 576,
      "##ib": 577,
      "##ire": 578,
      "##ose": 579,
      "##ting": 580,
      "interest": 581,
      "big": 582,
      "##mer": 583,
      "##istic": 584,
      "rom": 585,
      "there": 586,
      "##other": 587,
      "##ows": 588,
      "##vent": 589,
      "ins": 590,
      "eff": 591,
      "would": 592,
      "makes": 593,
      "fir": 594,
      "laugh": 595,
      "##ying": 596,
      "##ably": 597,
      "aw": 598,
      "##mak": 599,
      "##ism": 600,
      "part": 601,
      "under": 602,
      "beaut": 603,
      "##umb": 604,
      "character": 605,
      "they": 606,
      "##ower": 607,
      "performances": 608,
      "##sc": 609,
      "##ved": 610,
      "enough": 611,
      "##ations": 612,
      "scen": 613,
      "##press": 614,
      "old": 615,
      "##ately": 616,
      "better": 617,
      "other": 618,
      "wo": 619,
      "##ors": 620,
      "##ign": 621,
      "play": 622,
      "##ually": 623,
      "filmmak": 624,
      "clich": 625,
      "cast": 626,
      "how": 627,
      "may": 628,
      "ow": 629,
      "sense": 630,
      "##led": 631,
      "##joy": 632,
      "stu": 633,
      "enjoy": 634,
      "fa": 635,
      "##ible": 636,
      "##ang": 637,
      "sty": 638,
      "many": 639,
      "self": 640,
      "tri": 641,
      "human": 642,
      "##ause": 643,
      "surpr": 644,
      "down": 645,
      "jo": 646,
      "sim": 647,
      "che": 648,
      "##urn": 649,
      "##ople": 650,
      "people": 651,
      "first": 652,
      "both": 653,
      "##eric": 654,
      "##arr": 655,
      "really": 656,
      "world": 657,
      "charm": 658,
      "back": 659,
      "kn": 660,
      "ob": 661,
      "sat": 662,
      "##end": 663,
      "##uct": 664,
      "films": 665,
      "emot": 666,
      "something": 667,
      "##cept": 668,
      "imag": 669,
      "thrill": 670,
      "two": 671,
      "own": 672,
      "hard": 673,
      "run": 674,
      "##az": 675,
      "##ten": 676,
      "being": 677,
      "without": 678,
      "nothing": 679,
      "##tra": 680,
      "##pect": 681,
      "minutes": 682,
      "ide": 683,
      "could": 684,
      "kind": 685,
      "##ock": 686,
      "##ord": 687,
      "##iew": 688,
      "car": 689,
      "##igh": 690,
      "##sy": 691,
      "##ination": 692,
      "af": 693,
      "bu": 694,
      "pleas": 695,
      "##ving": 696,
      "such": 697,
      "worth": 698,
      "##elling": 699,
      "drama": 700,
      "##les": 701,
      "##ically": 702,
      "audience": 703,
      "surpris": 704,
      "sk": 705,
      "ter": 706,
      "##ian": 707,
      "while": 708,
      "ed": 709,
      "power": 710,
      "##ely": 711,
      "##ced": 712,
      "##ature": 713,
      "bec": 714,
      "cle": 715,
      "##ky": 716,
      "##wood": 717,
      "##ree": 718,
      "because": 719,
      "care": 720,
      "ev": 721,
      "find": 722,
      "##eless": 723,
      "when": 724,
      "##idd": 725,
      "exc": 726,
      "unf": 727,
      "acting": 728,
      "pret": 729,
      "##ney": 730,
      "ac": 731,
      "##iness": 732,
      "##ering": 733,
      "##alog": 734,
      "sequ": 735,
      "dialog": 736,
      "beauti": 737,
      "bel": 738,
      "far": 739,
      "mus": 740,
      "ori": 741,
      "swe": 742,
      "##ted": 743,
      "##so": 744,
      "another": 745,
      "##ching": 746,
      "rec": 747,
      "scri": 748,
      "entertaining": 749,
      "ir": 750,
      "ke": 751,
      "pict": 752,
      "##iting": 753,
      "inc": 754,
      "##ured": 755,
      "eng": 756,
      "should": 757,
      "##ginal": 758,
      "script": 759,
      "hist": 760,
      "high": 761,
      "mom": 762,
      "ve": 763,
      "view": 764,
      "##aster": 765,
      "ref": 766,
      "##erson": 767,
      "comple": 768,
      "cra": 769,
      "holly": 770,
      "creat": 771,
      "gl": 772,
      "lack": 773,
      "set": 774,
      "##oun": 775,
      "##vers": 776,
      "##ays": 777,
      "also": 778,
      "americ": 779,
      "performance": 780,
      "dialogue": 781,
      "rel": 782,
      "tou": 783,
      "##orr": 784,
      "often": 785,
      "cons": 786,
      "think": 787,
      "those": 788,
      "##ates": 789,
      "##ale": 790,
      "##its": 791,
      "##isf": 792,
      "##ross": 793,
      "hand": 794,
      "point": 795,
      "ear": 796,
      "less": 797,
      "##ng": 798,
      "##ner": 799,
      "##cing": 800,
      "##iss": 801,
      "##ently": 802,
      "star": 803,
      "still": 804,
      "##antic": 805,
      "after": 806,
      "aff": 807,
      "cap": 808,
      "kid": 809,
      "ph": 810,
      "##gg": 811,
      "##gu": 812,
      "##ds": 813,
      "##ks": 814,
      "##ument": 815,
      "exper": 816,
      "spec": 817,
      "original": 818,
      "dull": 819,
      "mor": 820,
      "mem": 821,
      "sch": 822,
      "turn": 823,
      "##ts": 824,
      "##ought": 825,
      "sum": 826,
      "##ures": 827,
      "##ellig": 828,
      "intellig": 829,
      "few": 830,
      "family": 831,
      "full": 832,
      "gu": 833,
      "him": 834,
      "sol": 835,
      "##tim": 836,
      "prov": 837,
      "interesting": 838,
      "hollywood": 839,
      "##ave": 840,
      "super": 841,
      "young": 842,
      "spir": 843,
      "doc": 844,
      "tale": 845,
      "thriller": 846,
      "ey": 847,
      "hour": 848,
      "mar": 849,
      "par": 850,
      "pain": 851,
      "wom": 852,
      "##xt": 853,
      "##ons": 854,
      "##ired": 855,
      "subject": 856,
      "visual": 857,
      "wonder": 858,
      "cut": 859,
      "might": 860,
      "pol": 861,
      "port": 862,
      "sin": 863,
      "##der": 864,
      "##alf": 865,
      "##iece": 866,
      "document": 867,
      "cre": 868,
      "dist": 869,
      "mind": 870,
      "our": 871,
      "right": 872,
      "##cy": 873,
      "##vin": 874,
      "##atter": 875,
      "##ition": 876,
      "##ome": 877,
      "conf": 878,
      "def": 879,
      "scenes": 880,
      "acc": 881,
      "cult": 882,
      "el": 883,
      "fin": 884,
      "low": 885,
      "mi": 886,
      "person": 887,
      "sw": 888,
      "##ged": 889,
      "these": 890,
      "##esh": 891,
      "##ather": 892,
      "##ics": 893,
      "##asc": 894,
      "come": 895,
      "dev": 896,
      "##app": 897,
      "class": 898,
      "pred": 899,
      "cinema": 900,
      "dra": 901,
      "half": 902,
      "pass": 903,
      "##ress": 904,
      "##str": 905,
      "##olog": 906,
      "susp": 907,
      "sec": 908,
      "keep": 909,
      "co": 910,
      "want": 911,
      "##air": 912,
      "##ences": 913,
      "##ality": 914,
      "##ange": 915,
      "##ilar": 916,
      "##asy": 917,
      "becom": 918,
      "anim": 919,
      "seen": 920,
      "alm": 921,
      "dec": 922,
      "making": 923,
      "##play": 924,
      "delight": 925,
      "watching": 926,
      "romantic": 927,
      "effect": 928,
      "simp": 929,
      "music": 930,
      "##king": 931,
      "flick": 932,
      "perfect": 933,
      "works": 934,
      "##ific": 935,
      "smart": 936,
      "warm": 937,
      "take": 938,
      "satisf": 939,
      "sweet": 940,
      "portra": 941,
      "almost": 942,
      "ca": 943,
      "ele": 944,
      "fasc": 945,
      "narr": 946,
      "##ia": 947,
      "##iant": 948,
      "##fic": 949,
      "bef": 950,
      "succ": 951,
      "child": 952,
      "sex": 953,
      "##ages": 954,
      "show": 955,
      "times": 956,
      "again": 957,
      "picture": 958,
      "had": 959,
      "med": 960,
      "mess": 961,
      "mater": 962,
      "sens": 963,
      "ul": 964,
      "inst": 965,
      "##ots": 966,
      "form": 967,
      "ener": 968,
      "deep": 969,
      "##oph": 970,
      "att": 971,
      "style": 972,
      "dem": 973,
      "mon": 974,
      "master": 975,
      "vide": 976,
      "##ead": 977,
      "##ward": 978,
      "##irl": 979,
      "##ake": 980,
      "uns": 981,
      "##thing": 982,
      "gener": 983,
      "seems": 984,
      "serious": 985,
      "cliché": 986,
      "moments": 987,
      "ultim": 988,
      "bar": 989,
      "bra": 990,
      "und": 991,
      "##te": 992,
      "##self": 993,
      "##ys": 994,
      "##inating": 995,
      "##iter": 996,
      "##ream": 997,
      "##ented": 998,
      "##oll": 999,
      "##que": 1000,
      "##ives": 1001,
      "##izing": 1002,
      "spirit": 1003,
      "bor": 1004,
      "bit": 1005,
      "sit": 1006,
      "sad": 1007,
      "##hip": 1008,
      "insp": 1009,
      "ent": 1010,
      "expl": 1011,
      "une": 1012,
      "abs": 1013,
      "diff": 1014,
      "need": 1015,
      "deli": 1016,
      "remark": 1017,
      "filmmaking": 1018,
      "emotional": 1019,
      "cam": 1020,
      "ho": 1021,
      "##gy": 1022,
      "##ially": 1023,
      "##yp": 1024,
      "##ci": 1025,
      "thought": 1026,
      "##icul": 1027,
      "##ility": 1028,
      "##els": 1029,
      "##raph": 1030,
      "comic": 1031,
      "##opp": 1032,
      "##using": 1033,
      "quir": 1034,
      "takes": 1035,
      "capt": 1036,
      "fascinating": 1037,
      "narrative": 1038,
      "before": 1039,
      "material": 1040,
      "ma": 1041,
      "rare": 1042,
      "rather": 1043,
      "things": 1044,
      "##itive": 1045,
      "##right": 1046,
      "call": 1047,
      "dark": 1048,
      "hu": 1049,
      "od": 1050,
      "put": 1051,
      "##tle": 1052,
      "##cer": 1053,
      "##ins": 1054,
      "##ane": 1055,
      "start": 1056,
      "##ime": 1057,
      "##iment": 1058,
      "##aste": 1059,
      "##ush": 1060,
      "prod": 1061,
      "tru": 1062,
      "genre": 1063,
      "entertainment": 1064,
      "years": 1065,
      "laughs": 1066,
      "stuff": 1067,
      "idea": 1068,
      "suspense": 1069,
      "ll": 1070,
      "rich": 1071,
      "##eal": 1072,
      "##iar": 1073,
      "##oid": 1074,
      "##but": 1075,
      "##nds": 1076,
      "##ank": 1077,
      "##lect": 1078,
      "##ider": 1079,
      "##urd": 1080,
      "itself": 1081,
      "worst": 1082,
      "dep": 1083,
      "##ope": 1084,
      "impress": 1085,
      "##ograph": 1086,
      "##ized": 1087,
      "cinematic": 1088,
      "belie": 1089,
      "special": 1090,
      "documentary": 1091,
      "give": 1092,
      "hon": 1093,
      "##kes": 1094,
      "##con": 1095,
      "though": 1096,
      "##ention": 1097,
      "where": 1098,
      "fresh": 1099,
      "level": 1100,
      "feels": 1101,
      "strong": 1102,
      "engag": 1103,
      "experience": 1104,
      "solid": 1105,
      "video": 1106,
      "dr": 1107,
      "day": 1108,
      "girl": 1109,
      "near": 1110,
      "##ier": 1111,
      "##ps": 1112,
      "stud": 1113,
      "##ously": 1114,
      "uni": 1115,
      "compelling": 1116,
      "betwe": 1117,
      "gets": 1118,
      "terri": 1119,
      "kids": 1120,
      "summer": 1121,
      "between": 1122,
      "horr": 1123,
      "val": 1124,
      "were": 1125,
      "##ger": 1126,
      "##read": 1127,
      "why": 1128,
      "comes": 1129,
      "moving": 1130,
      "intri": 1131,
      "feature": 1132,
      "least": 1133,
      "quite": 1134,
      "##oss": 1135,
      "cred": 1136,
      "rock": 1137,
      "desp": 1138,
      "american": 1139,
      "predict": 1140,
      "success": 1141,
      "ach": 1142,
      "face": 1143,
      "here": 1144,
      "same": 1145,
      "win": 1146,
      "wild": 1147,
      "##ren": 1148,
      "##ub": 1149,
      "##ues": 1150,
      "##vious": 1151,
      "##pid": 1152,
      "##eng": 1153,
      "inv": 1154,
      "##ils": 1155,
      "##entiment": 1156,
      "rep": 1157,
      "once": 1158,
      "she": 1159,
      "##ational": 1160,
      "##ists": 1161,
      "actors": 1162,
      "pres": 1163,
      "direction": 1164,
      "##ments": 1165,
      "hero": 1166,
      "screenplay": 1167,
      "effort": 1168,
      "charming": 1169,
      "history": 1170,
      "horror": 1171,
      "19": 1172,
      "dumb": 1173,
      "equ": 1174,
      "lot": 1175,
      "three": 1176,
      "##ening": 1177,
      "##ited": 1178,
      "##ason": 1179,
      "##uth": 1180,
      "stra": 1181,
      "stand": 1182,
      "begin": 1183,
      "##oof": 1184,
      "extra": 1185,
      "anyone": 1186,
      "going": 1187,
      "contri": 1188,
      "know": 1189,
      "surprisingly": 1190,
      "second": 1191,
      "truly": 1192,
      "det": 1193,
      "did": 1194,
      "pun": 1195,
      "pop": 1196,
      "past": 1197,
      "sound": 1198,
      "##res": 1199,
      "##ming": 1200,
      "##cial": 1201,
      "##ined": 1202,
      "##orn": 1203,
      "##oul": 1204,
      "##etic": 1205,
      "##imes": 1206,
      "##ural": 1207,
      "short": 1208,
      "manages": 1209,
      "##itten": 1210,
      "around": 1211,
      "teen": 1212,
      "enjoyable": 1213,
      "##sych": 1214,
      "pretty": 1215,
      "beautiful": 1216,
      "honest": 1217,
      "10": 1218,
      "bas": 1219,
      "ep": 1220,
      "hel": 1221,
      "men": 1222,
      "mel": 1223,
      "piece": 1224,
      "psych": 1225,
      "sy": 1226,
      "##ric": 1227,
      "##uck": 1228,
      "##iel": 1229,
      "##ient": 1230,
      "##man": 1231,
      "##be": 1232,
      "##wh": 1233,
      "##itation": 1234,
      "inf": 1235,
      "moder": 1236,
      "ext": 1237,
      "##ears": 1238,
      "brill": 1239,
      "black": 1240,
      "minute": 1241,
      "famil": 1242,
      "stupid": 1243,
      "polit": 1244,
      "ultimately": 1245,
      "nearly": 1246,
      "modern": 1247,
      "bo": 1248,
      "bro": 1249,
      "lar": 1250,
      "main": 1251,
      "nat": 1252,
      "oper": 1253,
      "pac": 1254,
      "yet": 1255,
      "##li": 1256,
      "##ked": 1257,
      "thing": 1258,
      "##edly": 1259,
      "##ret": 1260,
      "##stand": 1261,
      "ret": 1262,
      "##ett": 1263,
      "ass": 1264,
      "##ird": 1265,
      "suff": 1266,
      "##uring": 1267,
      "light": 1268,
      "##antly": 1269,
      "happ": 1270,
      "place": 1271,
      "true": 1272,
      "lead": 1273,
      "leave": 1274,
      "##alls": 1275,
      "poor": 1276,
      "##ished": 1277,
      "adm": 1278,
      "slow": 1279,
      "##avor": 1280,
      "sometimes": 1281,
      "appeal": 1282,
      "grand": 1283,
      "away": 1284,
      "clever": 1285,
      "beautifully": 1286,
      "quirky": 1287,
      "matter": 1288,
      "##cise": 1289,
      "##br": 1290,
      "theater": 1291,
      "##ony": 1292,
      "toget": 1293,
      "##reak": 1294,
      "##illy": 1295,
      "##ution": 1296,
      "ste": 1297,
      "##ustr": 1298,
      "##iction": 1299,
      "advent": 1300,
      "emb": 1301,
      "goes": 1302,
      "dramatic": 1303,
      "written": 1304,
      "powerful": 1305,
      "complex": 1306,
      "touch": 1307,
      "women": 1308,
      "becomes": 1309,
      "engaging": 1310,
      "despite": 1311,
      "together": 1312,
      "gives": 1313,
      "hilar": 1314,
      "midd": 1315,
      "sn": 1316,
      "sentiment": 1317,
      "##gic": 1318,
      "##itch": 1319,
      "##ither": 1320,
      "##ishing": 1321,
      "##rem": 1322,
      "##ires": 1323,
      "comm": 1324,
      "compl": 1325,
      "##ags": 1326,
      "frie": 1327,
      "death": 1328,
      "##here": 1329,
      "writer": 1330,
      "myst": 1331,
      "##scap": 1332,
      "simply": 1333,
      "satisfying": 1334,
      "entire": 1335,
      "predictable": 1336,
      "cou": 1337,
      "cent": 1338,
      "done": 1339,
      "esp": 1340,
      "four": 1341,
      "last": 1342,
      "mag": 1343,
      "pat": 1344,
      "pot": 1345,
      "##gent": 1346,
      "##uous": 1347,
      "##uine": 1348,
      "##oint": 1349,
      "##ses": 1350,
      "##path": 1351,
      "##amp": 1352,
      "concept": 1353,
      "##earing": 1354,
      "actually": 1355,
      "project": 1356,
      "trans": 1357,
      "flaw": 1358,
      "head": 1359,
      "add": 1360,
      "##ody": 1361,
      "feeling": 1362,
      "import": 1363,
      "insight": 1364,
      "##ount": 1365,
      "touching": 1366,
      "intelligence": 1367,
      "instead": 1368,
      "remarkable": 1369,
      "brilliant": 1370,
      "boy": 1371,
      "mis": 1372,
      "red": 1373,
      "tv": 1374,
      "##ied": 1375,
      "##iol": 1376,
      "##iest": 1377,
      "##oot": 1378,
      "##ft": 1379,
      "##orge": 1380,
      "##arly": 1381,
      "##ann": 1382,
      "convin": 1383,
      "actor": 1384,
      "lost": 1385,
      "##oney": 1386,
      "poss": 1387,
      "prom": 1388,
      "##ival": 1389,
      "offers": 1390,
      "##ension": 1391,
      "genuine": 1392,
      "mean": 1393,
      "imposs": 1394,
      "color": 1395,
      "romance": 1396,
      "obvious": 1397,
      "culture": 1398,
      "effects": 1399,
      "energy": 1400,
      "dam": 1401,
      "dri": 1402,
      "fant": 1403,
      "mot": 1404,
      "say": 1405,
      "##use": 1406,
      "##ith": 1407,
      "ine": 1408,
      "top": 1409,
      "##elves": 1410,
      "##ionally": 1411,
      "step": 1412,
      "prof": 1413,
      "proves": 1414,
      "amusing": 1415,
      "looking": 1416,
      "##tract": 1417,
      "earn": 1418,
      "affect": 1419,
      "hilarious": 1420,
      "fash": 1421,
      "hop": 1422,
      "mark": 1423,
      "nice": 1424,
      "op": 1425,
      "sign": 1426,
      "silly": 1427,
      "tit": 1428,
      "treat": 1429,
      "##ll": 1430,
      "##gr": 1431,
      "##ug": 1432,
      "##ugg": 1433,
      "##iences": 1434,
      "##ms": 1435,
      "##orable": 1436,
      "##ities": 1437,
      "inn": 1438,
      "##ase": 1439,
      "##otic": 1440,
      "##chn": 1441,
      "##rage": 1442,
      "##old": 1443,
      "exec": 1444,
      "attract": 1445,
      "quest": 1446,
      "##ecially": 1447,
      "##ults": 1448,
      "impro": 1449,
      "since": 1450,
      "warmth": 1451,
      "children": 1452,
      "differ": 1453,
      "maj": 1454,
      "familiar": 1455,
      "middle": 1456,
      "especially": 1457,
      "potent": 1458,
      "fashion": 1459,
      "ast": 1460,
      "ben": 1461,
      "cur": 1462,
      "fine": 1463,
      "let": 1464,
      "mer": 1465,
      "must": 1466,
      "now": 1467,
      "path": 1468,
      "ra": 1469,
      "soul": 1470,
      "ug": 1471,
      "viol": 1472,
      "##ail": 1473,
      "##lin": 1474,
      "##uel": 1475,
      "##ool": 1476,
      "##mise": 1477,
      "##selves": 1478,
      "##cess": 1479,
      "##zy": 1480,
      "##ercise": 1481,
      "invent": 1482,
      "##ief": 1483,
      "##ung": 1484,
      "##rop": 1485,
      "exercise": 1486,
      "##ively": 1487,
      "##istent": 1488,
      "frustr": 1489,
      "dead": 1490,
      "##used": 1491,
      "flat": 1492,
      "heav": 1493,
      "anything": 1494,
      "##come": 1495,
      "##ize": 1496,
      "premise": 1497,
      "slap": 1498,
      "disapp": 1499,
      "everyone": 1500,
      "delic": 1501,
      "trad": 1502,
      "cold": 1503,
      "himself": 1504,
      "eyes": 1505,
      "drag": 1506,
      "passion": 1507,
      "portrait": 1508,
      "##ography": 1509,
      "achie": 1510,
      "psycholog": 1511,
      "dim": 1512,
      "jour": 1513,
      "opp": 1514,
      "sort": 1515,
      "ur": 1516,
      "vir": 1517,
      "##lish": 1518,
      "##ove": 1519,
      "##yn": 1520,
      "##ways": 1521,
      "##erv": 1522,
      "then": 1523,
      "##ench": 1524,
      "##oud": 1525,
      "##als": 1526,
      "##ised": 1527,
      "##ract": 1528,
      "##iet": 1529,
      "forget": 1530,
      "coming": 1531,
      "##empt": 1532,
      "shows": 1533,
      "proble": 1534,
      "##ude": 1535,
      "##ortun": 1536,
      "trick": 1537,
      "trying": 1538,
      "##itting": 1539,
      "amb": 1540,
      "role": 1541,
      "strange": 1542,
      "##ocative": 1543,
      "filmmakers": 1544,
      "fair": 1545,
      "cheap": 1546,
      "accom": 1547,
      "sequel": 1548,
      "histor": 1549,
      "consider": 1550,
      "##guing": 1551,
      "intelligent": 1552,
      "hours": 1553,
      "deeply": 1554,
      "boring": 1555,
      "situ": 1556,
      "inspir": 1557,
      "believe": 1558,
      "intriguing": 1559,
      "sym": 1560,
      "heavy": 1561,
      "disappoint": 1562,
      "cer": 1563,
      "easy": 1564,
      "fact": 1565,
      "joy": 1566,
      "pay": 1567,
      "rest": 1568,
      "ride": 1569,
      "soph": 1570,
      "ut": 1571,
      "##line": 1572,
      "##und": 1573,
      "##io": 1574,
      "##ov": 1575,
      "##yond": 1576,
      "##era": 1577,
      "##ories": 1578,
      "##ott": 1579,
      "beyond": 1580,
      "##ula": 1581,
      "##ceed": 1582,
      "reason": 1583,
      "##ides": 1584,
      "chr": 1585,
      "forg": 1586,
      "along": 1587,
      "having": 1588,
      "above": 1589,
      "imm": 1590,
      "weird": 1591,
      "##odram": 1592,
      "ending": 1593,
      "techn": 1594,
      "ways": 1595,
      "remain": 1596,
      "grace": 1597,
      "pleasure": 1598,
      "skill": 1599,
      "refres": 1600,
      "medi": 1601,
      "product": 1602,
      "melodram": 1603,
      "opera": 1604,
      "impossible": 1605,
      "refreshing": 1606,
      "20": 1607,
      "dou": 1608,
      "har": 1609,
      "mur": 1610,
      "money": 1611,
      "occ": 1612,
      "pur": 1613,
      "tar": 1614,
      "##ele": 1615,
      "##co": 1616,
      "##ze": 1617,
      "##pos": 1618,
      "##ines": 1619,
      "##inary": 1620,
      "##ered": 1621,
      "##ising": 1622,
      "##lev": 1623,
      "ant": 1624,
      "##ident": 1625,
      "supp": 1626,
      "comb": 1627,
      "seat": 1628,
      "always": 1629,
      "exam": 1630,
      "expect": 1631,
      "unp": 1632,
      "shar": 1633,
      "##allow": 1634,
      "whole": 1635,
      "whose": 1636,
      "subst": 1637,
      "##velop": 1638,
      "deser": 1639,
      "traged": 1640,
      "beauty": 1641,
      "cliches": 1642,
      "tries": 1643,
      "imagination": 1644,
      "viewers": 1645,
      "moral": 1646,
      "woman": 1647,
      "##struct": 1648,
      "formula": 1649,
      "camera": 1650,
      "##oppy": 1651,
      "complic": 1652,
      "important": 1653,
      "ugly": 1654,
      "certain": 1655,
      "age": 1656,
      "der": 1657,
      "eas": 1658,
      "fi": 1659,
      "fut": 1660,
      "fans": 1661,
      "foll": 1662,
      "gags": 1663,
      "ill": 1664,
      "mich": 1665,
      "non": 1666,
      "sle": 1667,
      "tone": 1668,
      "tick": 1669,
      "vers": 1670,
      "wal": 1671,
      "wind": 1672,
      "##red": 1673,
      "##hn": 1674,
      "##hood": 1675,
      "##bably": 1676,
      "thin": 1677,
      "##ened": 1678,
      "##ones": 1679,
      "##entious": 1680,
      "beh": 1681,
      "rev": 1682,
      "##owd": 1683,
      "chill": 1684,
      "enth": 1685,
      "worse": 1686,
      "spect": 1687,
      "actress": 1688,
      "##ivid": 1689,
      "bland": 1690,
      "small": 1691,
      "themselves": 1692,
      "##ibly": 1693,
      "particul": 1694,
      "obs": 1695,
      "images": 1696,
      "ideas": 1697,
      "craf": 1698,
      "memorable": 1699,
      "defin": 1700,
      "unsett": 1701,
      "odd": 1702,
      "winning": 1703,
      "##ength": 1704,
      "contrived": 1705,
      "major": 1706,
      "90": 1707,
      "bal": 1708,
      "cop": 1709,
      "cele": 1710,
      "dest": 1711,
      "dry": 1712,
      "dream": 1713,
      "escap": 1714,
      "fre": 1715,
      "gent": 1716,
      "goof": 1717,
      "mr": 1718,
      "none": 1719,
      "osc": 1720,
      "sav": 1721,
      "##uc": 1722,
      "##cent": 1723,
      "##bb": 1724,
      "##eni": 1725,
      "##rable": 1726,
      "##owing": 1727,
      "sure": 1728,
      "##tern": 1729,
      "##ump": 1730,
      "express": 1731,
      "dog": 1732,
      "soap": 1733,
      "trou": 1734,
      "directed": 1735,
      "quick": 1736,
      "bring": 1737,
      "##comm": 1738,
      "##ecess": 1739,
      "subtle": 1740,
      "grad": 1741,
      "understand": 1742,
      "fails": 1743,
      "##azz": 1744,
      "complet": 1745,
      "personal": 1746,
      "animation": 1747,
      "delightful": 1748,
      "absurd": 1749,
      "thoughtful": 1750,
      "huge": 1751,
      "study": 1752,
      "##like": 1753,
      "adventure": 1754,
      "mystery": 1755,
      "entirely": 1756,
      "earnest": 1757,
      "title": 1758,
      "accompl": 1759,
      "utter": 1760,
      "occas": 1761,
      "spectac": 1762,
      "oscar": 1763,
      "book": 1764,
      "cor": 1765,
      "cond": 1766,
      "got": 1767,
      "gri": 1768,
      "hor": 1769,
      "jack": 1770,
      "name": 1771,
      "rate": 1772,
      "wel": 1773,
      "##ek": 1774,
      "##ior": 1775,
      "##iff": 1776,
      "##iven": 1777,
      "##telling": 1778,
      "##piece": 1779,
      "stun": 1780,
      "reg": 1781,
      "##oose": 1782,
      "##ames": 1783,
      "exact": 1784,
      "shot": 1785,
      "construct": 1786,
      "french": 1787,
      "debut": 1788,
      "hack": 1789,
      "next": 1790,
      "likely": 1791,
      "##udd": 1792,
      "##iously": 1793,
      "trash": 1794,
      "storytelling": 1795,
      "##ensive": 1796,
      "everything": 1797,
      "seeing": 1798,
      "visually": 1799,
      "artist": 1800,
      "audiences": 1801,
      "scene": 1802,
      "jokes": 1803,
      "john": 1804,
      "chees": 1805,
      "##ended": 1806,
      "worthy": 1807,
      "career": 1808,
      "viewer": 1809,
      "lacks": 1810,
      "memory": 1811,
      "mix": 1812,
      "pacing": 1813,
      "virt": 1814,
      "easily": 1815,
      "unsettling": 1816,
      "celebr": 1817,
      "gentle": 1818,
      "completely": 1819,
      "ess": 1820,
      "each": 1821,
      "fan": 1822,
      "fight": 1823,
      "game": 1824,
      "gorge": 1825,
      "lab": 1826,
      "list": 1827,
      "mal": 1828,
      "miss": 1829,
      "nature": 1830,
      "pure": 1831,
      "rh": 1832,
      "rid": 1833,
      "sand": 1834,
      "squ": 1835,
      "side": 1836,
      "tires": 1837,
      "##ael": 1838,
      "##aces": 1839,
      "##rit": 1840,
      "##ging": 1841,
      "##gar": 1842,
      "##gue": 1843,
      "##sh": 1844,
      "##son": 1845,
      "thor": 1846,
      "theat": 1847,
      "##ision": 1848,
      "##lend": 1849,
      "##enty": 1850,
      "##ote": 1851,
      "##ster": 1852,
      "mood": 1853,
      "ann": 1854,
      "read": 1855,
      "##olut": 1856,
      "sust": 1857,
      "##oop": 1858,
      "live": 1859,
      "except": 1860,
      "unc": 1861,
      "depress": 1862,
      "##ellent": 1863,
      "dig": 1864,
      "intim": 1865,
      "##oughly": 1866,
      "truth": 1867,
      "left": 1868,
      "quality": 1869,
      "##oying": 1870,
      "crowd": 1871,
      "ends": 1872,
      "smo": 1873,
      "twist": 1874,
      "realistic": 1875,
      "talented": 1876,
      "##berg": 1877,
      "##bert": 1878,
      "hold": 1879,
      "series": 1880,
      "wrong": 1881,
      "indul": 1882,
      "job": 1883,
      "knows": 1884,
      "wonderful": 1885,
      "creep": 1886,
      "else": 1887,
      "devast": 1888,
      "classic": 1889,
      "simple": 1890,
      "masterpiece": 1891,
      "clichés": 1892,
      "brain": 1893,
      "undeni": 1894,
      "unique": 1895,
      "value": 1896,
      "straight": 1897,
      "poorly": 1898,
      "sentimental": 1899,
      "friends": 1900,
      "journey": 1901,
      "fairly": 1902,
      "sharp": 1903,
      "future": 1904,
      "cour": 1905,
      "dar": 1906,
      "date": 1907,
      "days": 1908,
      "fear": 1909,
      "fram": 1910,
      "found": 1911,
      "home": 1912,
      "land": 1913,
      "mes": 1914,
      "met": 1915,
      "mach": 1916,
      "sick": 1917,
      "sac": 1918,
      "ted": 1919,
      "tur": 1920,
      "tell": 1921,
      "tired": 1922,
      "taste": 1923,
      "var": 1924,
      "vivid": 1925,
      "##ax": 1926,
      "##aid": 1927,
      "##ring": 1928,
      "##up": 1929,
      "##way": 1930,
      "##0s": 1931,
      "##inative": 1932,
      "mod": 1933,
      "##chy": 1934,
      "##ters": 1935,
      "lives": 1936,
      "unin": 1937,
      "words": 1938,
      "develop": 1939,
      "spy": 1940,
      "##asty": 1941,
      "probably": 1942,
      "##uster": 1943,
      "##ands": 1944,
      "##pping": 1945,
      "manner": 1946,
      "poign": 1947,
      "comedies": 1948,
      "##acy": 1949,
      "road": 1950,
      "throughout": 1951,
      "inside": 1952,
      "stylish": 1953,
      "edge": 1954,
      "excellent": 1955,
      "##neyed": 1956,
      "creative": 1957,
      "thinking": 1958,
      "phil": 1959,
      "provo": 1960,
      "create": 1961,
      "decent": 1962,
      "attention": 1963,
      "attempt": 1964,
      "uneven": 1965,
      "deliver": 1966,
      "impressive": 1967,
      "terrific": 1968,
      "standard": 1969,
      "begins": 1970,
      "extraord": 1971,
      "epic": 1972,
      "appealing": 1973,
      "##pathy": 1974,
      "different": 1975,
      "historical": 1976,
      "melodrama": 1977,
      "target": 1978,
      "version": 1979,
      "hackneyed": 1980,
      "thoroughly": 1981,
      "mesmer": 1982,
      "av": 1983,
      "bud": 1984,
      "break": 1985,
      "either": 1986,
      "falls": 1987,
      "favor": 1988,
      "hom": 1989,
      "length": 1990,
      "mill": 1991,
      "mild": 1992,
      "nor": 1993,
      "nich": 1994,
      "pie": 1995,
      "pack": 1996,
      "rip": 1997,
      "typ": 1998,
      "##rol": 1999,
      "##rical": 2000,
      "##ler": 2001,
      "##oon": 2002,
      "##bt": 2003,
      "##bs": 2004,
      "##war": 2005,
      "##where": 2006,
      "##atory": 2007,
      "##ency": 2008,
      "##onic": 2009,
      "##ars": 2010,
      "##aly": 2011,
      "##ital": 2012,
      "##anced": 2013,
      "##icult": 2014,
      "##rel": 2015,
      "##elt": 2016,
      "reve": 2017,
      "##ament": 2018,
      "able": 2019,
      "ability": 2020,
      "sport": 2021,
      "##ops": 2022,
      "##astic": 2023,
      "close": 2024,
      "##alling": 2025,
      "blood": 2026,
      "crime": 2027,
      "empt": 2028,
      "##ode": 2029,
      "slight": 2030,
      "uses": 2031,
      "meand": 2032,
      "##lessly": 2033,
      "desper": 2034,
      "idi": 2035,
      "##isticated": 2036,
      "##ationship": 2037,
      "running": 2038,
      "surprising": 2039,
      "pretentious": 2040,
      "irre": 2041,
      "pictures": 2042,
      "engross": 2043,
      "relationship": 2044,
      "eye": 2045,
      "painful": 2046,
      "final": 2047,
      "elements": 2048,
      "explo": 2049,
      "unex": 2050,
      "difficult": 2051,
      "help": 2052,
      "extrem": 2053,
      "large": 2054,
      "fashioned": 2055,
      "violence": 2056,
      "frustrating": 2057,
      "medioc": 2058,
      "examination": 2059,
      "crafted": 2060,
      "trouble": 2061,
      "exactly": 2062,
      "tiresome": 2063,
      "sustain": 2064,
      "budget": 2065,
      "bur": 2066,
      "breat": 2067,
      "bott": 2068,
      "cal": 2069,
      "cost": 2070,
      "cross": 2071,
      "dazz": 2072,
      "fat": 2073,
      "fem": 2074,
      "gang": 2075,
      "lim": 2076,
      "line": 2077,
      "lame": 2078,
      "raw": 2079,
      "sing": 2080,
      "test": 2081,
      "use": 2082,
      "ver": 2083,
      "vib": 2084,
      "waste": 2085,
      "ya": 2086,
      "##ding": 2087,
      "##men": 2088,
      "##tly": 2089,
      "##fort": 2090,
      "##cl": 2091,
      "##ple": 2092,
      "##att": 2093,
      "##ont": 2094,
      "##anch": 2095,
      "##ley": 2096,
      "stri": 2097,
      "##vement": 2098,
      "##ular": 2099,
      "ang": 2100,
      "revel": 2101,
      "##unny": 2102,
      "##umph": 2103,
      "##aged": 2104,
      "sham": 2105,
      "shoot": 2106,
      "consc": 2107,
      "doing": 2108,
      "feat": 2109,
      "thanks": 2110,
      "try": 2111,
      "flash": 2112,
      "amaz": 2113,
      "##ivity": 2114,
      "##osoph": 2115,
      "brit": 2116,
      "weak": 2117,
      "somewh": 2118,
      "crit": 2119,
      "##itely": 2120,
      "generic": 2121,
      "served": 2122,
      "vision": 2123,
      "writing": 2124,
      "appar": 2125,
      "indie": 2126,
      "plays": 2127,
      "filmmaker": 2128,
      "triumph": 2129,
      "satire": 2130,
      "emotions": 2131,
      "surprises": 2132,
      "unfunny": 2133,
      "incl": 2134,
      "created": 2135,
      "lacking": 2136,
      "america": 2137,
      "turns": 2138,
      "superfic": 2139,
      "marvel": 2140,
      "wonderfully": 2141,
      "finally": 2142,
      "portray": 2143,
      "sexual": 2144,
      "message": 2145,
      "delivers": 2146,
      "captures": 2147,
      "rarely": 2148,
      "wildly": 2149,
      "natural": 2150,
      "assured": 2151,
      "commun": 2152,
      "convincing": 2153,
      "fantasy": 2154,
      "innoc": 2155,
      "execution": 2156,
      "problem": 2157,
      "sophisticated": 2158,
      "complicated": 2159,
      "deriv": 2160,
      "michael": 2161,
      "particularly": 2162,
      "observ": 2163,
      "philosoph": 2164,
      "bottom": 2165,
      "somewhat": 2166,
      "superficial": 2167,
      "core": 2168,
      "during": 2169,
      "er": 2170,
      "eth": 2171,
      "fest": 2172,
      "fur": 2173,
      "food": 2174,
      "fac": 2175,
      "fare": 2176,
      "ge": 2177,
      "god": 2178,
      "hit": 2179,
      "kill": 2180,
      "lay": 2181,
      "laz": 2182,
      "loud": 2183,
      "numb": 2184,
      "pul": 2185,
      "pub": 2186,
      "sor": 2187,
      "sour": 2188,
      "tension": 2189,
      "water": 2190,
      "##ai": 2191,
      "##af": 2192,
      "##ru": 2193,
      "##go": 2194,
      "##day": 2195,
      "##ox": 2196,
      "##off": 2197,
      "##ton": 2198,
      "##par": 2199,
      "##bers": 2200,
      "##erm": 2201,
      "##orious": 2202,
      "##ancy": 2203,
      "##ises": 2204,
      "##rew": 2205,
      "recomm": 2206,
      "##ims": 2207,
      "##olly": 2208,
      "commer": 2209,
      "##ember": 2210,
      "exh": 2211,
      "exp": 2212,
      "uncon": 2213,
      "shap": 2214,
      "shock": 2215,
      "spe": 2216,
      "spark": 2217,
      "spiel": 2218,
      "##aph": 2219,
      "acted": 2220,
      "##usi": 2221,
      "##uss": 2222,
      "##ustry": 2223,
      "leav": 2224,
      "mostly": 2225,
      "##prom": 2226,
      "##osp": 2227,
      "##osed": 2228,
      "cruel": 2229,
      "emer": 2230,
      "justice": 2231,
      "means": 2232,
      "reality": 2233,
      "struct": 2234,
      "watchable": 2235,
      "looks": 2236,
      "##getic": 2237,
      "coll": 2238,
      "greatest": 2239,
      "industry": 2240,
      "reson": 2241,
      "respect": 2242,
      "##ibility": 2243,
      "fail": 2244,
      "emotionally": 2245,
      "imagine": 2246,
      "sequels": 2247,
      "moment": 2248,
      "##versal": 2249,
      "hands": 2250,
      "phot": 2251,
      "school": 2252,
      "parents": 2253,
      "sexy": 2254,
      "energetic": 2255,
      "captiv": 2256,
      "invol": 2257,
      "political": 2258,
      "couple": 2259,
      "flaws": 2260,
      "colorful": 2261,
      "open": 2262,
      "christ": 2263,
      "remains": 2264,
      "tragedy": 2265,
      "definitely": 2266,
      "utterly": 2267,
      "gripping": 2268,
      "welcome": 2269,
      "virtually": 2270,
      "gorgeous": 2271,
      "indulgent": 2272,
      "creepy": 2273,
      "frame": 2274,
      "extraordinary": 2275,
      "mesmerizing": 2276,
      "engrossing": 2277,
      "spielberg": 2278,
      "auth": 2279,
      "bi": 2280,
      "ban": 2281,
      "cat": 2282,
      "dan": 2283,
      "dav": 2284,
      "ful": 2285,
      "fig": 2286,
      "fire": 2287,
      "hell": 2288,
      "ii": 2289,
      "kne": 2290,
      "kiss": 2291,
      "ling": 2292,
      "lur": 2293,
      "mad": 2294,
      "mart": 2295,
      "pri": 2296,
      "pull": 2297,
      "sal": 2298,
      "save": 2299,
      "tun": 2300,
      "vul": 2301,
      "vict": 2302,
      "##ah": 2303,
      "##uit": 2304,
      "##iod": 2305,
      "##yth": 2306,
      "##cere": 2307,
      "##cceed": 2308,
      "##por": 2309,
      "##by": 2310,
      "##wr": 2311,
      "##inct": 2312,
      "##erous": 2313,
      "##ork": 2314,
      "##arily": 2315,
      "tom": 2316,
      "##omb": 2317,
      "##leg": 2318,
      "##otten": 2319,
      "stories": 2320,
      "##ets": 2321,
      "suck": 2322,
      "succeed": 2323,
      "chall": 2324,
      "change": 2325,
      "enc": 2326,
      "alread": 2327,
      "unim": 2328,
      "conv": 2329,
      "scary": 2330,
      "process": 2331,
      "places": 2332,
      "allows": 2333,
      "funn": 2334,
      "period": 2335,
      "##quis": 2336,
      "poet": 2337,
      "prot": 2338,
      "brut": 2339,
      "brown": 2340,
      "compan": 2341,
      "sloppy": 2342,
      "used": 2343,
      "usual": 2344,
      "endearing": 2345,
      "##atively": 2346,
      "##ify": 2347,
      "room": 2348,
      "twice": 2349,
      "surf": 2350,
      "talent": 2351,
      "hearted": 2352,
      "ago": 2353,
      "ages": 2354,
      "collect": 2355,
      "artific": 2356,
      "awful": 2357,
      "##igned": 2358,
      "tribut": 2359,
      "exciting": 2360,
      "across": 2361,
      "highly": 2362,
      "sets": 2363,
      "earth": 2364,
      "turned": 2365,
      "provocative": 2366,
      "sincere": 2367,
      "predecess": 2368,
      "cool": 2369,
      "##ilarating": 2370,
      "flicks": 2371,
      "meditation": 2372,
      "seriously": 2373,
      "remarkably": 2374,
      "starts": 2375,
      "produ": 2376,
      "depth": 2377,
      "universal": 2378,
      "sounds": 2379,
      "##ield": 2380,
      "politics": 2381,
      "natured": 2382,
      "embra": 2383,
      "meaning": 2384,
      "motion": 2385,
      "inept": 2386,
      "inventive": 2387,
      "opportun": 2388,
      "strangely": 2389,
      "doubt": 2390,
      "certainly": 2391,
      "enthusi": 2392,
      "goofy": 2393,
      "horri": 2394,
      "annoying": 2395,
      "devastating": 2396,
      "avoid": 2397,
      "relationships": 2398,
      "unexpect": 2399,
      "mediocre": 2400,
      "vibr": 2401,
      "exhilarating": 2402,
      "already": 2403,
      "artificial": 2404,
      "tribute": 2405,
      "bull": 2406,
      "count": 2407,
      "gh": 2408,
      "gut": 2409,
      "ham": 2410,
      "mid": 2411,
      "mere": 2412,
      "match": 2413,
      "nons": 2414,
      "pal": 2415,
      "park": 2416,
      "pec": 2417,
      "pile": 2418,
      "wa": 2419,
      "##ned": 2420,
      "##ever": 2421,
      "##light": 2422,
      "##mosp": 2423,
      "##vable": 2424,
      "##pe": 2425,
      "##bel": 2426,
      "##wise": 2427,
      "##ino": 2428,
      "##esc": 2429,
      "##atography": 2430,
      "##eness": 2431,
      "##onstr": 2432,
      "##edi": 2433,
      "##aling": 2434,
      "##ister": 2435,
      "tot": 2436,
      "##reci": 2437,
      "stale": 2438,
      "##uliar": 2439,
      "analy": 2440,
      "##rad": 2441,
      "##ether": 2442,
      "##iro": 2443,
      "##vern": 2444,
      "##aking": 2445,
      "##ams": 2446,
      "##amb": 2447,
      "alone": 2448,
      "altern": 2449,
      "shallow": 2450,
      "consp": 2451,
      "atmosp": 2452,
      "intro": 2453,
      "social": 2454,
      "neither": 2455,
      "##pped": 2456,
      "flu": 2457,
      "flair": 2458,
      "pos": 2459,
      "upon": 2460,
      "quiet": 2461,
      "brings": 2462,
      "offensive": 2463,
      "##comp": 2464,
      "disney": 2465,
      "disgu": 2466,
      "yourself": 2467,
      "minor": 2468,
      "grief": 2469,
      "strugg": 2470,
      "remind": 2471,
      "remember": 2472,
      "##ashed": 2473,
      "##acher": 2474,
      "tragic": 2475,
      "taking": 2476,
      "cinematography": 2477,
      "insult": 2478,
      "playing": 2479,
      "faith": 2480,
      "##arring": 2481,
      "editing": 2482,
      "sequence": 2483,
      "sequences": 2484,
      "recent": 2485,
      "record": 2486,
      "##orrow": 2487,
      "superb": 2488,
      "become": 2489,
      "eleg": 2490,
      "sensitive": 2491,
      "demonstr": 2492,
      "##iculous": 2493,
      "based": 2494,
      "epis": 2495,
      "##beat": 2496,
      "maintain": 2497,
      "magic": 2498,
      "##rageous": 2499,
      "potential": 2500,
      "aston": 2501,
      "considerable": 2502,
      "situation": 2503,
      "purp": 2504,
      "chilling": 2505,
      "accomplished": 2506,
      "spectacle": 2507,
      "ridiculous": 2508,
      "##olutely": 2509,
      "course": 2510,
      "metaph": 2511,
      "sports": 2512,
      "breath": 2513,
      "dazzling": 2514,
      "recommend": 2515,
      "challeng": 2516,
      "peculiar": 2517,
      "bare": 2518,
      "city": 2519,
      "du": 2520,
      "daw": 2521,
      "event": 2522,
      "foot": 2523,
      "gif": 2524,
      "green": 2525,
      "gross": 2526,
      "hall": 2527,
      "hip": 2528,
      "hyp": 2529,
      "jer": 2530,
      "kick": 2531,
      "lu": 2532,
      "lat": 2533,
      "num": 2534,
      "rad": 2535,
      "saw": 2536,
      "tort": 2537,
      "wish": 2538,
      "wann": 2539,
      "##ob": 2540,
      "##oice": 2541,
      "##ken": 2542,
      "##sues": 2543,
      "##corn": 2544,
      "##vag": 2545,
      "##zen": 2546,
      "##inal": 2547,
      "##ese": 2548,
      "##aries": 2549,
      "##ilt": 2550,
      "##ilty": 2551,
      "##let": 2552,
      "stock": 2553,
      "starring": 2554,
      "beat": 2555,
      "bears": 2556,
      "##uls": 2557,
      "##ches": 2558,
      "##ceiv": 2559,
      "releas": 2560,
      "##eth": 2561,
      "aspect": 2562,
      "witty": 2563,
      "fill": 2564,
      "##irc": 2565,
      "##irty": 2566,
      "chance": 2567,
      "##very": 2568,
      "##ades": 2569,
      "##abe": 2570,
      "##unch": 2571,
      "liber": 2572,
      "sever": 2573,
      "##agon": 2574,
      "##ague": 2575,
      "##ement": 2576,
      "unt": 2577,
      "shots": 2578,
      "concl": 2579,
      "spin": 2580,
      "spook": 2581,
      "splend": 2582,
      "intense": 2583,
      "##aps": 2584,
      "plain": 2585,
      "los": 2586,
      "loss": 2587,
      "##andon": 2588,
      "mann": 2589,
      "price": 2590,
      "noir": 2591,
      "novel": 2592,
      "offer": 2593,
      "##eping": 2594,
      "adults": 2595,
      "performers": 2596,
      "##assion": 2597,
      "disc": 2598,
      "endless": 2599,
      "##ife": 2600,
      "smile": 2601,
      "root": 2602,
      "robert": 2603,
      "realism": 2604,
      "surre": 2605,
      "designed": 2606,
      "visit": 2607,
      "ident": 2608,
      "appreci": 2609,
      "others": 2610,
      "##ventional": 2611,
      "otherwise": 2612,
      "playful": 2613,
      "humanity": 2614,
      "downright": 2615,
      "##idden": 2616,
      "handed": 2617,
      "stars": 2618,
      "mindless": 2619,
      "access": 2620,
      "draw": 2621,
      "keeps": 2622,
      "effective": 2623,
      "against": 2624,
      "ultimate": 2625,
      "spiritual": 2626,
      "bored": 2627,
      "inspired": 2628,
      "explor": 2629,
      "camp": 2630,
      "called": 2631,
      "levels": 2632,
      "intrigue": 2633,
      "present": 2634,
      "extravag": 2635,
      "popcorn": 2636,
      "broad": 2637,
      "possible": 2638,
      "genuinely": 2639,
      "profound": 2640,
      "treatment": 2641,
      "attraction": 2642,
      "delicate": 2643,
      "psychological": 2644,
      "forgotten": 2645,
      "refreshingly": 2646,
      "unpleas": 2647,
      "oddly": 2648,
      "constructed": 2649,
      "rhyth": 2650,
      "depressing": 2651,
      "intimate": 2652,
      "undeniably": 2653,
      "sacri": 2654,
      "empty": 2655,
      "meandering": 2656,
      "philosophical": 2657,
      "festival": 2658,
      "publ": 2659,
      "commercial": 2660,
      "conviction": 2661,
      "protagon": 2662,
      "surface": 2663,
      "vibrant": 2664,
      "analyze": 2665,
      "wannabe": 2666,
      "aut": 2667,
      "bus": 2668,
      "circ": 2669,
      "dre": 2670,
      "dish": 2671,
      "fast": 2672,
      "fall": 2673,
      "foc": 2674,
      "free": 2675,
      "hate": 2676,
      "hope": 2677,
      "king": 2678,
      "la": 2679,
      "late": 2680,
      "mist": 2681,
      "niro": 2682,
      "pers": 2683,
      "pair": 2684,
      "rav": 2685,
      "roll": 2686,
      "rush": 2687,
      "wast": 2688,
      "##nal": 2689,
      "##nect": 2690,
      "##eur": 2691,
      "##ral": 2692,
      "##land": 2693,
      "##ges": 2694,
      "##gen": 2695,
      "##dd": 2696,
      "##ien": 2697,
      "##kable": 2698,
      "##kward": 2699,
      "##mark": 2700,
      "##body": 2701,
      "##arter": 2702,
      "inh": 2703,
      "inher": 2704,
      "toward": 2705,
      "##omach": 2706,
      "##iler": 2707,
      "ital": 2708,
      "issues": 2709,
      "stir": 2710,
      "stay": 2711,
      "stomach": 2712,
      "##stick": 2713,
      "repr": 2714,
      "ones": 2715,
      "##iday": 2716,
      "##oles": 2717,
      "sun": 2718,
      "forced": 2719,
      "##sem": 2720,
      "##esty": 2721,
      "living": 2722,
      "sear": 2723,
      "alive": 2724,
      "##agger": 2725,
      "unus": 2726,
      "uncom": 2727,
      "share": 2728,
      "conj": 2729,
      "concer": 2730,
      "franch": 2731,
      "haun": 2732,
      "sci": 2733,
      "spot": 2734,
      "diver": 2735,
      "##key": 2736,
      "##actic": 2737,
      "##igor": 2738,
      "prop": 2739,
      "clim": 2740,
      "clum": 2741,
      "load": 2742,
      "logic": 2743,
      "##pper": 2744,
      "##ptuous": 2745,
      "ponder": 2746,
      "storyline": 2747,
      "arri": 2748,
      "comedic": 2749,
      "working": 2750,
      "someone": 2751,
      "blue": 2752,
      "compassion": 2753,
      "overl": 2754,
      "rob": 2755,
      "tender": 2756,
      "twists": 2757,
      "impact": 2758,
      "grant": 2759,
      "theme": 2760,
      "colle": 2761,
      "resist": 2762,
      "awkward": 2763,
      "cliche": 2764,
      "simpl": 2765,
      "hardly": 2766,
      "runs": 2767,
      "carri": 2768,
      "sket": 2769,
      "skip": 2770,
      "clear": 2771,
      "##elessly": 2772,
      "complete": 2773,
      "affair": 2774,
      "sumptuous": 2775,
      "guy": 2776,
      "guys": 2777,
      "provide": 2778,
      "painfully": 2779,
      "##xture": 2780,
      "cute": 2781,
      "cutting": 2782,
      "##vincing": 2783,
      "confusing": 2784,
      "devoid": 2785,
      "animated": 2786,
      "perfectly": 2787,
      "credit": 2788,
      "detail": 2789,
      "determ": 2790,
      "suffering": 2791,
      "friend": 2792,
      "central": 2793,
      "magn": 2794,
      "affection": 2795,
      "questions": 2796,
      "bene": 2797,
      "merit": 2798,
      "##ropri": 2799,
      "slapstick": 2800,
      "dimens": 2801,
      "situations": 2802,
      "immedi": 2803,
      "production": 2804,
      "200": 2805,
      "substance": 2806,
      "follow": 2807,
      "balance": 2808,
      "grade": 2809,
      "occasionally": 2810,
      "cheesy": 2811,
      "essent": 2812,
      "twisted": 2813,
      "tedious": 2814,
      "mildly": 2815,
      "pieces": 2816,
      "female": 2817,
      "conscious": 2818,
      "includ": 2819,
      "innocence": 2820,
      "derivative": 2821,
      "pulp": 2822,
      "unconvincing": 2823,
      "leaves": 2824,
      "david": 2825,
      "fully": 2826,
      "unimag": 2827,
      "positive": 2828,
      "purpose": 2829,
      "barely": 2830,
      "latest": 2831,
      "unpleasant": 2832,
      "franchise": 2833,
      "30": 2834,
      "ah": 2835,
      "ap": 2836,
      "air": 2837,
      "apl": 2838,
      "bat": 2839,
      "ball": 2840,
      "bond": 2841,
      "bord": 2842,
      "cell": 2843,
      "cart": 2844,
      "came": 2845,
      "dv": 2846,
      "den": 2847,
      "dick": 2848,
      "dyn": 2849,
      "dirty": 2850,
      "est": 2851,
      "fal": 2852,
      "fra": 2853,
      "five": 2854,
      "fright": 2855,
      "fears": 2856,
      "fiction": 2857,
      "ger": 2858,
      "host": 2859,
      "je": 2860,
      "ju": 2861,
      "jol": 2862,
      "jun": 2863,
      "lad": 2864,
      "law": 2865,
      "lots": 2866,
      "loose": 2867,
      "mudd": 2868,
      "na": 2869,
      "nu": 2870,
      "ner": 2871,
      "night": 2872,
      "nasty": 2873,
      "pit": 2874,
      "pace": 2875,
      "pitch": 2876,
      "rive": 2877,
      "rand": 2878,
      "san": 2879,
      "sink": 2880,
      "sides": 2881,
      "wick": 2882,
      "wall": 2883,
      "wise": 2884,
      "zone": 2885,
      "##aise": 2886,
      "##nes": 2887,
      "##egr": 2888,
      "##rous": 2889,
      "##gn": 2890,
      "##iance": 2891,
      "##mas": 2892,
      "##table": 2893,
      "##sw": 2894,
      "##felt": 2895,
      "##vate": 2896,
      "##ining": 2897,
      "##inable": 2898,
      "##arity": 2899,
      "##ouse": 2900,
      "##outh": 2901,
      "##itable": 2902,
      "##isp": 2903,
      "told": 2904,
      "store": 2905,
      "##ulative": 2906,
      "move": 2907,
      "##cend": 2908,
      "##rac": 2909,
      "react": 2910,
      "requ": 2911,
      "##imsy": 2912,
      "##irming": 2913,
      "##olution": 2914,
      "sugg": 2915,
      "chang": 2916,
      "##vert": 2917,
      "comfort": 2918,
      "##ability": 2919,
      "##unct": 2920,
      "##esting": 2921,
      "lived": 2922,
      "existent": 2923,
      "unlike": 2924,
      "decept": 2925,
      "scr": 2926,
      "spl": 2927,
      "spider": 2928,
      "intric": 2929,
      "sober": 2930,
      "proper": 2931,
      "cla": 2932,
      "##udlin": 2933,
      "##ogn": 2934,
      "amount": 2935,
      "##oyant": 2936,
      "weight": 2937,
      "crass": 2938,
      "adult": 2939,
      "meas": 2940,
      "lovely": 2941,
      "ground": 2942,
      "heartfelt": 2943,
      "contin": 2944,
      "laughter": 2945,
      "surprise": 2946,
      "##urns": 2947,
      "##arrass": 2948,
      "imaginative": 2949,
      "ideal": 2950,
      "evil": 2951,
      "events": 2952,
      "evocative": 2953,
      "unfortun": 2954,
      "accept": 2955,
      "musical": 2956,
      "sweeping": 2957,
      "##ounter": 2958,
      "relatively": 2959,
      "##time": 2960,
      "distinct": 2961,
      "##attered": 2962,
      "confident": 2963,
      "cultural": 2964,
      "mixture": 2965,
      "decades": 2966,
      "delightfully": 2967,
      "succumb": 2968,
      "generally": 2969,
      "absor": 2970,
      "needs": 2971,
      "girls": 2972,
      "terrible": 2973,
      "successful": 2974,
      "suffers": 2975,
      "steven": 2976,
      "flawed": 2977,
      "boys": 2978,
      "##ivalent": 2979,
      "signific": 2980,
      "execut": 2981,
      "question": 2982,
      "deadly": 2983,
      "achieves": 2984,
      "technically": 2985,
      "supposed": 2986,
      "deserves": 2987,
      "slee": 2988,
      "quickly": 2989,
      "subtlety": 2990,
      "malaise": 2991,
      "theatrical": 2992,
      "friendship": 2993,
      "various": 2994,
      "provoking": 2995,
      "fatal": 2996,
      "revelatory": 2997,
      "british": 2998,
      "captivating": 2999,
      "knew": 3000,
      "##quisite": 3001,
      "bullock": 3002,
      "episode": 3003,
      "astonishing": 3004,
      "##ceived": 3005,
      "conclus": 3006,
      "identity": 3007,
      "repres": 3008,
      "haunting": 3009,
      "college": 3010,
      "simplistic": 3011,
      "dynam": 3012,
      "bog": 3013,
      "bound": 3014,
      "bold": 3015,
      "dime": 3016,
      "east": 3017,
      "fit": 3018,
      "fart": 3019,
      "fif": 3020,
      "gone": 3021,
      "giant": 3022,
      "given": 3023,
      "games": 3024,
      "house": 3025,
      "lear": 3026,
      "mc": 3027,
      "mat": 3028,
      "mil": 3029,
      "mother": 3030,
      "mention": 3031,
      "push": 3032,
      "ri": 3033,
      "rent": 3034,
      "rout": 3035,
      "rap": 3036,
      "sne": 3037,
      "sitting": 3038,
      "tre": 3039,
      "tear": 3040,
      "vamp": 3041,
      "yes": 3042,
      "##ror": 3043,
      "##gest": 3044,
      "##ium": 3045,
      "##irable": 3046,
      "##oqu": 3047,
      "##kins": 3048,
      "##xic": 3049,
      "##pse": 3050,
      "##bing": 3051,
      "##bly": 3052,
      "##ina": 3053,
      "##ingu": 3054,
      "##ored": 3055,
      "##arn": 3056,
      "##ison": 3057,
      "##ilities": 3058,
      "##asm": 3059,
      "##entic": 3060,
      "##otyp": 3061,
      "stop": 3062,
      "stere": 3063,
      "stink": 3064,
      "answ": 3065,
      "##essed": 3066,
      "##essional": 3067,
      "##etent": 3068,
      "##olds": 3069,
      "cha": 3070,
      "chem": 3071,
      "liked": 3072,
      "##eman": 3073,
      "exist": 3074,
      "exquisite": 3075,
      "unn": 3076,
      "unre": 3077,
      "shad": 3078,
      "frank": 3079,
      "science": 3080,
      "scream": 3081,
      "##asting": 3082,
      "imitation": 3083,
      "allen": 3084,
      "clarity": 3085,
      "##quently": 3086,
      "outrageous": 3087,
      "post": 3088,
      "poetic": 3089,
      "prim": 3090,
      "among": 3091,
      "directing": 3092,
      "##osity": 3093,
      "somewhere": 3094,
      "offering": 3095,
      "cry": 3096,
      "empathy": 3097,
      "##izes": 3098,
      "prec": 3099,
      "usually": 3100,
      "ende": 3101,
      "badly": 3102,
      "genial": 3103,
      "smug": 3104,
      "telev": 3105,
      "grat": 3106,
      "grou": 3107,
      "grow": 3108,
      "growing": 3109,
      "themes": 3110,
      "heartwar": 3111,
      "seeking": 3112,
      "conte": 3113,
      "contem": 3114,
      "getting": 3115,
      "resem": 3116,
      "results": 3117,
      "bigger": 3118,
      "party": 3119,
      "maybe": 3120,
      "##angu": 3121,
      "check": 3122,
      "buy": 3123,
      "buck": 3124,
      "build": 3125,
      "pleasing": 3126,
      "worthwh": 3127,
      "skin": 3128,
      "terror": 3129,
      "educ": 3130,
      "clearly": 3131,
      "excit": 3132,
      "unflin": 3133,
      "incred": 3134,
      "reflect": 3135,
      "consum": 3136,
      "pointless": 3137,
      "morvern": 3138,
      "guess": 3139,
      "guilty": 3140,
      "spirits": 3141,
      "subjects": 3142,
      "confl": 3143,
      "accur": 3144,
      "##appy": 3145,
      "halfway": 3146,
      "##ology": 3147,
      "wants": 3148,
      "sensual": 3149,
      "monster": 3150,
      "masterful": 3151,
      "sitcom": 3152,
      "deliber": 3153,
      "##cipl": 3154,
      "callar": 3155,
      "hugh": 3156,
      "##insky": 3157,
      "suspenseful": 3158,
      "believable": 3159,
      "presence": 3160,
      "199": 3161,
      "equivalent": 3162,
      "beginning": 3163,
      "teenage": 3164,
      "paced": 3165,
      "##likable": 3166,
      "##standing": 3167,
      "embarrass": 3168,
      "transl": 3169,
      "damage": 3170,
      "motiv": 3171,
      "hopkins": 3172,
      "market": 3173,
      "innov": 3174,
      "pathetic": 3175,
      "tradition": 3176,
      "forgettable": 3177,
      "inspiring": 3178,
      "##undant": 3179,
      "forgive": 3180,
      "##levant": 3181,
      "combination": 3182,
      "behind": 3183,
      "escape": 3184,
      "bringing": 3185,
      "##iveness": 3186,
      "daring": 3187,
      "poignancy": 3188,
      "typical": 3189,
      "amazing": 3190,
      "marvelous": 3191,
      "george": 3192,
      "lazy": 3193,
      "involving": 3194,
      "figure": 3195,
      "vulgar": 3196,
      "funniest": 3197,
      "poetry": 3198,
      "company": 3199,
      "opportunity": 3200,
      "unexpected": 3201,
      "merely": 3202,
      "nonsense": 3203,
      "metaphor": 3204,
      "footage": 3205,
      "gifted": 3206,
      "number": 3207,
      "public": 3208,
      "business": 3209,
      "unusual": 3210,
      "dimensional": 3211,
      "2002": 3212,
      "essentially": 3213,
      "battle": 3214,
      "cartoon": 3215,
      "dickens": 3216,
      "riveting": 3217,
      "unfortunately": 3218,
      "stereotyp": 3219,
      "worthwhile": 3220,
      "unflinching": 3221,
      "aim": 3222,
      "bag": 3223,
      "bod": 3224,
      "bother": 3225,
      "bang": 3226,
      "bright": 3227,
      "cause": 3228,
      "dread": 3229,
      "fake": 3230,
      "gre": 3231,
      "gun": 3232,
      "hy": 3233,
      "hot": 3234,
      "hide": 3235,
      "ign": 3236,
      "kidd": 3237,
      "langu": 3238,
      "pan": 3239,
      "pom": 3240,
      "pra": 3241,
      "pet": 3242,
      "pow": 3243,
      "pap": 3244,
      "ren": 3245,
      "rog": 3246,
      "song": 3247,
      "ten": 3248,
      "tough": 3249,
      "trem": 3250,
      "wis": 3251,
      "woo": 3252,
      "wry": 3253,
      "##aven": 3254,
      "##na": 3255,
      "##ee": 3256,
      "##ein": 3257,
      "##gress": 3258,
      "##uced": 3259,
      "##dy": 3260,
      "##ij": 3261,
      "##ipp": 3262,
      "##ique": 3263,
      "##ma": 3264,
      "##med": 3265,
      "##fest": 3266,
      "##fill": 3267,
      "##fying": 3268,
      "##field": 3269,
      "##yc": 3270,
      "##vil": 3271,
      "##hem": 3272,
      "##pan": 3273,
      "##pons": 3274,
      "##bed": 3275,
      "##iny": 3276,
      "##ero": 3277,
      "##erable": 3278,
      "##ator": 3279,
      "##ority": 3280,
      "##eningly": 3281,
      "##arine": 3282,
      "##lyn": 3283,
      "##lying": 3284,
      "##itious": 3285,
      "##itions": 3286,
      "##omination": 3287,
      "##iling": 3288,
      "##ellect": 3289,
      "##ashing": 3290,
      "stret": 3291,
      "##vey": 3292,
      "##ulation": 3293,
      "##racy": 3294,
      "reach": 3295,
      "wholly": 3296,
      "whether": 3297,
      "##ida": 3298,
      "##iding": 3299,
      "filmed": 3300,
      "##ola": 3301,
      "choppy": 3302,
      "chops": 3303,
      "##verty": 3304,
      "##abl": 3305,
      "seag": 3306,
      "##amed": 3307,
      "moviego": 3308,
      "unw": 3309,
      "unor": 3310,
      "unlikable": 3311,
      "##ther": 3312,
      "##istry": 3313,
      "conventional": 3314,
      "front": 3315,
      "abandon": 3316,
      "scar": 3317,
      "notch": 3318,
      "notice": 3319,
      "##opic": 3320,
      "intended": 3321,
      "intellect": 3322,
      "##apt": 3323,
      "plod": 3324,
      "plenty": 3325,
      "feces": 3326,
      "loses": 3327,
      "manip": 3328,
      "poverty": 3329,
      "amoun": 3330,
      "##iving": 3331,
      "blank": 3332,
      "heated": 3333,
      "##ensions": 3334,
      "prev": 3335,
      "prep": 3336,
      "dism": 3337,
      "disaster": 3338,
      "##ifting": 3339,
      "smarter": 3340,
      "tend": 3341,
      "interm": 3342,
      "thematic": 3343,
      "remake": 3344,
      "holes": 3345,
      "holiday": 3346,
      "wars": 3347,
      "viscer": 3348,
      "##others": 3349,
      "control": 3350,
      "myth": 3351,
      "characteriz": 3352,
      "##igni": 3353,
      "mayhem": 3354,
      "object": 3355,
      "##ends": 3356,
      "please": 3357,
      "excuse": 3358,
      "recogn": 3359,
      "crack": 3360,
      "creativity": 3361,
      "americans": 3362,
      "points": 3363,
      "early": 3364,
      "distance": 3365,
      "distingu": 3366,
      "mirac": 3367,
      "personality": 3368,
      "secret": 3369,
      "##ificent": 3370,
      "sensational": 3371,
      "absolutely": 3372,
      "hole": 3373,
      "maudlin": 3374,
      "puts": 3375,
      "startling": 3376,
      "impression": 3377,
      "repet": 3378,
      "198": 3379,
      "equally": 3380,
      "contriv": 3381,
      "punch": 3382,
      "happening": 3383,
      "grandeur": 3384,
      "sentimentality": 3385,
      "myster": 3386,
      "##scape": 3387,
      "possibly": 3388,
      "affecting": 3389,
      "improv": 3390,
      "benigni": 3391,
      "delicious": 3392,
      "achievement": 3393,
      "urb": 3394,
      "problems": 3395,
      "inspiration": 3396,
      "sympath": 3397,
      "sympathy": 3398,
      "##ovich": 3399,
      "weirdness": 3400,
      "frequently": 3401,
      "occasional": 3402,
      "jackson": 3403,
      "stunt": 3404,
      "mixed": 3405,
      "listless": 3406,
      "machine": 3407,
      "modest": 3408,
      "poignant": 3409,
      "revealing": 3410,
      "extremely": 3411,
      "apparent": 3412,
      "##promising": 3413,
      "collap": 3414,
      "resonant": 3415,
      "authentic": 3416,
      "banal": 3417,
      "lurid": 3418,
      "succeeds": 3419,
      "enthusiasm": 3420,
      "country": 3421,
      "disguise": 3422,
      "challenging": 3423,
      "aspects": 3424,
      "rooting": 3425,
      "exploration": 3426,
      "perspect": 3427,
      "wasted": 3428,
      "italian": 3429,
      "magnificent": 3430,
      "apart": 3431,
      "suggest": 3432,
      "existential": 3433,
      "vampire": 3434,
      "chemistry": 3435,
      "television": 3436,
      "heartwarming": 3437,
      "context": 3438,
      "conflict": 3439,
      "seagal": 3440,
      "amounts": 3441,
      "bore": 3442,
      "cy": 3443,
      "cand": 3444,
      "case": 3445,
      "cyn": 3446,
      "dom": 3447,
      "daugh": 3448,
      "dying": 3449,
      "dress": 3450,
      "dub": 3451,
      "et": 3452,
      "fer": 3453,
      "fol": 3454,
      "freak": 3455,
      "ga": 3456,
      "gem": 3457,
      "harr": 3458,
      "hits": 3459,
      "hung": 3460,
      "ice": 3461,
      "jul": 3462,
      "jim": 3463,
      "ly": 3464,
      "lun": 3465,
      "lud": 3466,
      "liter": 3467,
      "lush": 3468,
      "ms": 3469,
      "misf": 3470,
      "nomination": 3471,
      "pu": 3472,
      "pic": 3473,
      "pian": 3474,
      "pale": 3475,
      "pract": 3476,
      "ru": 3477,
      "rod": 3478,
      "ridden": 3479,
      "son": 3480,
      "sar": 3481,
      "saf": 3482,
      "sister": 3483,
      "sappy": 3484,
      "tack": 3485,
      "telling": 3486,
      "tasty": 3487,
      "voice": 3488,
      "wat": 3489,
      "wed": 3490,
      "wow": 3491,
      "wood": 3492,
      "yu": 3493,
      "##eem": 3494,
      "##run": 3495,
      "##round": 3496,
      "##low": 3497,
      "##luster": 3498,
      "##gust": 3499,
      "##gment": 3500,
      "##iable": 3501,
      "##my": 3502,
      "##to": 3503,
      "##tick": 3504,
      "##for": 3505,
      "##vy": 3506,
      "##za": 3507,
      "##he": 3508,
      "##how": 3509,
      "##hop": 3510,
      "##bol": 3511,
      "##back": 3512,
      "##ball": 3513,
      "##wor": 3514,
      "##inis": 3515,
      "##erence": 3516,
      "##onna": 3517,
      "##arc": 3518,
      "##itional": 3519,
      "##itude": 3520,
      "##anet": 3521,
      "##anny": 3522,
      "##ices": 3523,
      "##icip": 3524,
      "##icrous": 3525,
      "incomp": 3526,
      "ingen": 3527,
      "##reet": 3528,
      "##omical": 3529,
      "##lets": 3530,
      "##ctim": 3531,
      "##ute": 3532,
      "stick": 3533,
      "stoop": 3534,
      "##stream": 3535,
      "##ulated": 3536,
      "##ray": 3537,
      "##iety": 3538,
      "whom": 3539,
      "white": 3540,
      "asp": 3541,
      "witch": 3542,
      "filled": 3543,
      "##ided": 3544,
      "##idence": 3545,
      "chann": 3546,
      "##aks": 3547,
      "##akes": 3548,
      "##aked": 3549,
      "##estic": 3550,
      "##umin": 3551,
      "##roach": 3552,
      "##ager": 3553,
      "expos": 3554,
      "unrel": 3555,
      "##theless": 3556,
      "const": 3557,
      "connect": 3558,
      "word": 3559,
      "deg": 3560,
      "deb": 3561,
      "deal": 3562,
      "score": 3563,
      "spent": 3564,
      "spite": 3565,
      "spring": 3566,
      "intention": 3567,
      "integr": 3568,
      "soon": 3569,
      "##ffman": 3570,
      "charism": 3571,
      "##iginal": 3572,
      "necess": 3573,
      "##orting": 3574,
      "loc": 3575,
      "trite": 3576,
      "##anding": 3577,
      "##hington": 3578,
      "lee": 3579,
      "leg": 3580,
      "flesh": 3581,
      "thrown": 3582,
      "##ishment": 3583,
      "brothers": 3584,
      "somehow": 3585,
      "block": 3586,
      "height": 3587,
      "intoxic": 3588,
      "adapt": 3589,
      "##aced": 3590,
      "preach": 3591,
      "previous": 3592,
      "slim": 3593,
      "slice": 3594,
      "slopp": 3595,
      "slugg": 3596,
      "disgust": 3597,
      "useless": 3598,
      "endure": 3599,
      "##ounding": 3600,
      "subt": 3601,
      "overb": 3602,
      "overwh": 3603,
      "overcome": 3604,
      "overrun": 3605,
      "##owned": 3606,
      "meat": 3607,
      "text": 3608,
      "teeth": 3609,
      "imperson": 3610,
      "surv": 3611,
      "grown": 3612,
      "talents": 3613,
      "talking": 3614,
      "strict": 3615,
      "##lings": 3616,
      "reminis": 3617,
      "screenwr": 3618,
      "seek": 3619,
      "travel": 3620,
      "trailer": 3621,
      "aged": 3622,
      "appalling": 3623,
      "approach": 3624,
      "washington": 3625,
      "content": 3626,
      "contrad": 3627,
      "indian": 3628,
      "##phy": 3629,
      "respons": 3630,
      "nevertheless": 3631,
      "plotting": 3632,
      "##ibilities": 3633,
      "biggest": 3634,
      "firing": 3635,
      "award": 3636,
      "##umbo": 3637,
      "played": 3638,
      "casting": 3639,
      "however": 3640,
      "stuck": 3641,
      "enjoyed": 3642,
      "trip": 3643,
      "knock": 3644,
      "##iews": 3645,
      "buff": 3646,
      "pleasant": 3647,
      "terms": 3648,
      "clean": 3649,
      "reco": 3650,
      "recyc": 3651,
      "irres": 3652,
      "crazy": 3653,
      "creates": 3654,
      "glim": 3655,
      "lackluster": 3656,
      "setting": 3657,
      "##ission": 3658,
      "affirming": 3659,
      "originality": 3660,
      "members": 3661,
      "superior": 3662,
      "visuals": 3663,
      "police": 3664,
      "creation": 3665,
      "distract": 3666,
      "eloqu": 3667,
      "persona": 3668,
      "swim": 3669,
      "##ological": 3670,
      "suspect": 3671,
      "satisfy": 3672,
      "sweetly": 3673,
      "instantly": 3674,
      "demands": 3675,
      "monty": 3676,
      "generous": 3677,
      "barrel": 3678,
      "spirited": 3679,
      "hoffman": 3680,
      "values": 3681,
      "credits": 3682,
      "sheer": 3683,
      "presented": 3684,
      "heroes": 3685,
      "seconds": 3686,
      "honestly": 3687,
      "held": 3688,
      "broom": 3689,
      "larger": 3690,
      "mainstream": 3691,
      "happy": 3692,
      "happen": 3693,
      "touches": 3694,
      "courage": 3695,
      "centur": 3696,
      "patience": 3697,
      "addition": 3698,
      "brilliantly": 3699,
      "promise": 3700,
      "drive": 3701,
      "inex": 3702,
      "professional": 3703,
      "dragon": 3704,
      "passionate": 3705,
      "tricks": 3706,
      "ambition": 3707,
      "symbol": 3708,
      "factor": 3709,
      "sophom": 3710,
      "harm": 3711,
      "murder": 3712,
      "murphy": 3713,
      "deserve": 3714,
      "tragedies": 3715,
      "ticket": 3716,
      "enthr": 3717,
      "understanding": 3718,
      "trashy": 3719,
      "essence": 3720,
      "fights": 3721,
      "uncanny": 3722,
      "digital": 3723,
      "landscape": 3724,
      "uninsp": 3725,
      "development": 3726,
      "standards": 3727,
      "homage": 3728,
      "niche": 3729,
      "slightly": 3730,
      "desperate": 3731,
      "irrelevant": 3732,
      "single": 3733,
      "testament": 3734,
      "features": 3735,
      "flashy": 3736,
      "community": 3737,
      "observations": 3738,
      "further": 3739,
      "expense": 3740,
      "structure": 3741,
      "structured": 3742,
      "christmas": 3743,
      "kissing": 3744,
      "brutal": 3745,
      "collection": 3746,
      "predecessor": 3747,
      "totally": 3748,
      "alternative": 3749,
      "atmospher": 3750,
      "fluid": 3751,
      "elegance": 3752,
      "breatht": 3753,
      "tortured": 3754,
      "##ulsive": 3755,
      "until": 3756,
      "accessible": 3757,
      "rhythms": 3758,
      "dreary": 3759,
      "stirring": 3760,
      "overlong": 3761,
      "determined": 3762,
      "##ropriate": 3763,
      "unimaginative": 3764,
      "dvd": 3765,
      "false": 3766,
      "jew": 3767,
      "sanctim": 3768,
      "wickedly": 3769,
      "changing": 3770,
      "scratch": 3771,
      "represents": 3772,
      "dynamic": 3773,
      "eastwood": 3774,
      "farts": 3775,
      "answers": 3776,
      "group": 3777,
      "contempor": 3778,
      "excitement": 3779,
      "kiddie": 3780,
      "paper": 3781,
      "manipulative": 3782,
      "visceral": 3783,
      "characterizations": 3784,
      "urban": 3785,
      "perspective": 3786,
      "hungry": 3787,
      "ludicrous": 3788,
      "channel": 3789,
      "preachy": 3790,
      "sluggish": 3791,
      "overwhel": 3792,
      "reminiscent": 3793,
      "astr": 3794,
      "ble": 3795,
      "bul": 3796,
      "bir": 3797,
      "bone": 3798,
      "blend": 3799,
      "bunch": 3800,
      "cas": 3801,
      "catch": 3802,
      "da": 3803,
      "dang": 3804,
      "dys": 3805,
      "era": 3806,
      "fish": 3807,
      "foul": 3808,
      "fund": 3809,
      "felt": 3810,
      "goo": 3811,
      "gory": 3812,
      "gently": 3813,
      "hus": 3814,
      "hitch": 3815,
      "jap": 3816,
      "jason": 3817,
      "jones": 3818,
      "lower": 3819,
      "luck": 3820,
      "lola": 3821,
      "mouth": 3822,
      "nij": 3823,
      "opt": 3824,
      "pen": 3825,
      "pad": 3826,
      "page": 3827,
      "rac": 3828,
      "race": 3829,
      "rises": 3830,
      "sell": 3831,
      "ske": 3832,
      "sake": 3833,
      "sorrow": 3834,
      "tight": 3835,
      "tong": 3836,
      "tones": 3837,
      "vs": 3838,
      "vol": 3839,
      "vill": 3840,
      "vap": 3841,
      "won": 3842,
      "wond": 3843,
      "york": 3844,
      "##aa": 3845,
      "##ails": 3846,
      "##ns": 3847,
      "##nity": 3848,
      "##equ": 3849,
      "##eks": 3850,
      "##rent": 3851,
      "##rence": 3852,
      "##lim": 3853,
      "##lest": 3854,
      "##ued": 3855,
      "##uable": 3856,
      "##uity": 3857,
      "##ueless": 3858,
      "##dom": 3859,
      "##die": 3860,
      "##iation": 3861,
      "##ians": 3862,
      "##fl": 3863,
      "##funct": 3864,
      "##yan": 3865,
      "##cil": 3866,
      "##cri": 3867,
      "##hand": 3868,
      "##bo": 3869,
      "##bum": 3870,
      "##bled": 3871,
      "##wer": 3872,
      "##wan": 3873,
      "##well": 3874,
      "thous": 3875,
      "threat": 3876,
      "third": 3877,
      "##erie": 3878,
      "##oric": 3879,
      "##enn": 3880,
      "##enity": 3881,
      "##enching": 3882,
      "##onistic": 3883,
      "##lym": 3884,
      "##ansp": 3885,
      "##anks": 3886,
      "##icu": 3887,
      "##icing": 3888,
      "##icient": 3889,
      "##iles": 3890,
      "##ask": 3891,
      "##asive": 3892,
      "##ionary": 3893,
      "##ental": 3894,
      "##otically": 3895,
      "street": 3896,
      "##stein": 3897,
      "moody": 3898,
      "##ched": 3899,
      "##ceful": 3900,
      "received": 3901,
      "onto": 3902,
      "##etically": 3903,
      "##imm": 3904,
      "whims": 3905,
      "##ids": 3906,
      "filming": 3907,
      "##olves": 3908,
      "sugar": 3909,
      "chan": 3910,
      "chances": 3911,
      "fore": 3912,
      "moved": 3913,
      "##urous": 3914,
      "##umacher": 3915,
      "enorm": 3916,
      "ensem": 3917,
      "alien": 3918,
      "##agers": 3919,
      "##emon": 3920,
      "examp": 3921,
      "exceed": 3922,
      "unb": 3923,
      "unner": 3924,
      "shame": 3925,
      "##tha": 3926,
      "conven": 3927,
      "france": 3928,
      "##ants": 3929,
      "hair": 3930,
      "note": 3931,
      "spare": 3932,
      "spoof": 3933,
      "butt": 3934,
      "div": 3935,
      "##apable": 3936,
      "charged": 3937,
      "##ushing": 3938,
      "planet": 3939,
      "clueless": 3940,
      "loves": 3941,
      "perm": 3942,
      "##inder": 3943,
      "makers": 3944,
      "transp": 3945,
      "##pless": 3946,
      "flow": 3947,
      "flavor": 3948,
      "pok": 3949,
      "##itted": 3950,
      "arn": 3951,
      "arr": 3952,
      "timeless": 3953,
      "upd": 3954,
      "proud": 3955,
      "pressed": 3956,
      "amuse": 3957,
      "##atingly": 3958,
      "brook": 3959,
      "web": 3960,
      "weav": 3961,
      "week": 3962,
      "blade": 3963,
      "blair": 3964,
      "heal": 3965,
      "heaven": 3966,
      "office": 3967,
      "offbeat": 3968,
      "adequ": 3969,
      "##acious": 3970,
      "##tains": 3971,
      "##ensed": 3972,
      "pref": 3973,
      "##spect": 3974,
      "display": 3975,
      "using": 3976,
      "lifesty": 3977,
      "willing": 3978,
      "timely": 3979,
      "##lessness": 3980,
      "team": 3981,
      "realized": 3982,
      "heard": 3983,
      "surround": 3984,
      "seemingly": 3985,
      "directors": 3986,
      "directorial": 3987,
      "holm": 3988,
      "humorous": 3989,
      "##athers": 3990,
      "descri": 3991,
      "contest": 3992,
      "result": 3993,
      "##ibb": 3994,
      "interested": 3995,
      "romp": 3996,
      "laughable": 3997,
      "woe": 3998,
      "styl": 3999,
      "tried": 4000,
      "joke": 4001,
      "saturd": 4002,
      "##track": 4003,
      "##ords": 4004,
      "caric": 4005,
      "territ": 4006,
      "edited": 4007,
      "evo": 4008,
      "finds": 4009,
      "excess": 4010,
      "excru": 4011,
      "unfor": 4012,
      "belt": 4013,
      "belly": 4014,
      "oriented": 4015,
      "irony": 4016,
      "irrit": 4017,
      "key": 4018,
      "scripts": 4019,
      "refus": 4020,
      "craw": 4021,
      "glory": 4022,
      "sett": 4023,
      "relies": 4024,
      "consist": 4025,
      "handled": 4026,
      "##ggy": 4027,
      "experiences": 4028,
      "morning": 4029,
      "schumacher": 4030,
      "martha": 4031,
      "paran": 4032,
      "minded": 4033,
      "##vino": 4034,
      "deft": 4035,
      "accent": 4036,
      "accents": 4037,
      "wanting": 4038,
      "animal": 4039,
      "smartly": 4040,
      "satisfied": 4041,
      "messages": 4042,
      "general": 4043,
      "barbers": 4044,
      "##teen": 4045,
      "sadness": 4046,
      "needed": 4047,
      "hoot": 4048,
      "##ciful": 4049,
      "odds": 4050,
      "richer": 4051,
      "depend": 4052,
      "studio": 4053,
      "wilde": 4054,
      "reput": 4055,
      "195": 4056,
      "equal": 4057,
      "knowing": 4058,
      "soundtrack": 4059,
      "teenagers": 4060,
      "basic": 4061,
      "extended": 4062,
      "##etto": 4063,
      "admirable": 4064,
      "adventurous": 4065,
      "patient": 4066,
      "redundant": 4067,
      "promising": 4068,
      "obviously": 4069,
      "nicely": 4070,
      "attractive": 4071,
      "improb": 4072,
      "potentially": 4073,
      "drags": 4074,
      "psychology": 4075,
      "ambitious": 4076,
      "inspirational": 4077,
      "joyous": 4078,
      "payoff": 4079,
      "medium": 4080,
      "murky": 4081,
      "##cover": 4082,
      "seats": 4083,
      "formulaic": 4084,
      "behav": 4085,
      "revolution": 4086,
      "actresses": 4087,
      "copy": 4088,
      "##ecessary": 4089,
      "corny": 4090,
      "celebration": 4091,
      "fanciful": 4092,
      "missed": 4093,
      "theaters": 4094,
      "reading": 4095,
      "exceptional": 4096,
      "dignity": 4097,
      "smooth": 4098,
      "undeniable": 4099,
      "turning": 4100,
      "vividly": 4101,
      "delivered": 4102,
      "favorite": 4103,
      "nichol": 4104,
      "reveals": 4105,
      "desperately": 4106,
      "exploitation": 4107,
      "largely": 4108,
      "portrayal": 4109,
      "erotic": 4110,
      "killer": 4111,
      "sorvino": 4112,
      "emerge": 4113,
      "photography": 4114,
      "martin": 4115,
      "private": 4116,
      "victim": 4117,
      "##uitous": 4118,
      "brutally": 4119,
      "predecessors": 4120,
      "producer": 4121,
      "meaningful": 4122,
      "ghost": 4123,
      "ghetto": 4124,
      "introd": 4125,
      "hallmark": 4126,
      "hype": 4127,
      "fills": 4128,
      "spinning": 4129,
      "spooky": 4130,
      "splendor": 4131,
      "surreal": 4132,
      "sacrific": 4133,
      "protagonist": 4134,
      "ravishing": 4135,
      "##dden": 4136,
      "uncompromising": 4137,
      "conjured": 4138,
      "spotlight": 4139,
      "arrive": 4140,
      "sketchy": 4141,
      "beneath": 4142,
      "including": 4143,
      "ahead": 4144,
      "aplenty": 4145,
      "german": 4146,
      "junk": 4147,
      "lawrence": 4148,
      "required": 4149,
      "conclusion": 4150,
      "routine": 4151,
      "unnecessary": 4152,
      "gratuitous": 4153,
      "incredibly": 4154,
      "translation": 4155,
      "unoriginal": 4156,
      "intellectual": 4157,
      "repetitive": 4158,
      "lyrical": 4159,
      "safe": 4160,
      "blockb": 4161,
      "intoxicating": 4162,
      "adaptation": 4163,
      "recovery": 4164,
      "irresist": 4165,
      "glimpse": 4166,
      "eloquent": 4167,
      "century": 4168,
      "enthralling": 4169,
      "uninspired": 4170,
      "jewish": 4171,
      "contemporary": 4172,
      "dysfunct": 4173,
      "fundament": 4174,
      "japan": 4175,
      "nijinsky": 4176,
      "villain": 4177,
      "whimsical": 4178,
      "ensemble": 4179,
      "example": 4180,
      "unnerving": 4181,
      "convenient": 4182,
      "lifestyle": 4183,
      "saturday": 4184,
      "territory": 4185,
      "excruci": 4186,
      "barbershop": 4187,
      "dysfunctional": 4188,
      "13": 4189,
      "11": 4190,
      "12": 4191,
      "51": 4192,
      "bon": 4193,
      "biz": 4194,
      "burn": 4195,
      "bits": 4196,
      "bank": 4197,
      "body": 4198,
      "bomb": 4199,
      "cock": 4200,
      "corn": 4201,
      "dust": 4202,
      "dance": 4203,
      "ech": 4204,
      "fell": 4205,
      "faster": 4206,
      "fool": 4207,
      "gay": 4208,
      "gall": 4209,
      "gold": 4210,
      "goose": 4211,
      "ian": 4212,
      "kore": 4213,
      "kline": 4214,
      "kwan": 4215,
      "lect": 4216,
      "later": 4217,
      "lope": 4218,
      "mac": 4219,
      "mult": 4220,
      "mile": 4221,
      "male": 4222,
      "nick": 4223,
      "names": 4224,
      "narc": 4225,
      "oce": 4226,
      "ped": 4227,
      "poo": 4228,
      "pse": 4229,
      "pity": 4230,
      "pick": 4231,
      "pony": 4232,
      "range": 4233,
      "rank": 4234,
      "russ": 4235,
      "ramb": 4236,
      "ryan": 4237,
      "sill": 4238,
      "sight": 4239,
      "sane": 4240,
      "said": 4241,
      "ty": 4242,
      "table": 4243,
      "tears": 4244,
      "upper": 4245,
      "vague": 4246,
      "wes": 4247,
      "wear": 4248,
      "wand": 4249,
      "wife": 4250,
      "yarn": 4251,
      "##nic": 4252,
      "##now": 4253,
      "##nox": 4254,
      "##een": 4255,
      "##eed": 4256,
      "##rating": 4257,
      "##lind": 4258,
      "##gan": 4259,
      "##gain": 4260,
      "##girl": 4261,
      "##uge": 4262,
      "##uated": 4263,
      "##ucing": 4264,
      "##dle": 4265,
      "##ix": 4266,
      "##oher": 4267,
      "##mon": 4268,
      "##ship": 4269,
      "##form": 4270,
      "##fice": 4271,
      "##vir": 4272,
      "##vice": 4273,
      "##views": 4274,
      "##hy": 4275,
      "##hes": 4276,
      "##hic": 4277,
      "##bor": 4278,
      "##book": 4279,
      "##balls": 4280,
      "##break": 4281,
      "##work": 4282,
      "##jud": 4283,
      "##inate": 4284,
      "##inated": 4285,
      "##erved": 4286,
      "##erences": 4287,
      "##escend": 4288,
      "##atus": 4289,
      "##atomical": 4290,
      "##ores": 4291,
      "##oning": 4292,
      "##only": 4293,
      "##ario": 4294,
      "##areness": 4295,
      "##edict": 4296,
      "##alized": 4297,
      "##itz": 4298,
      "##anc": 4299,
      "##anity": 4300,
      "inane": 4301,
      "inesc": 4302,
      "toss": 4303,
      "today": 4304,
      "##reh": 4305,
      "##rets": 4306,
      "##leck": 4307,
      "##lete": 4308,
      "##asp": 4309,
      "##ionable": 4310,
      "stage": 4311,
      "stays": 4312,
      "stream": 4313,
      "stiff": 4314,
      "staged": 4315,
      "stagger": 4316,
      "##ulous": 4317,
      "##uloid": 4318,
      "anatomical": 4319,
      "##charine": 4320,
      "##cends": 4321,
      "rein": 4322,
      "render": 4323,
      "reward": 4324,
      "##imer": 4325,
      "whate": 4326,
      "witless": 4327,
      "##idge": 4328,
      "##iring": 4329,
      "suited": 4330,
      "cho": 4331,
      "chuck": 4332,
      "chase": 4333,
      "##adem": 4334,
      "forth": 4335,
      "forces": 4336,
      "within": 4337,
      "##tering": 4338,
      "comprom": 4339,
      "##sey": 4340,
      "##urry": 4341,
      "sea": 4342,
      "sem": 4343,
      "##umes": 4344,
      "envir": 4345,
      "##rog": 4346,
      "##ousy": 4347,
      "alth": 4348,
      "##emark": 4349,
      "##ements": 4350,
      "exotic": 4351,
      "unm": 4352,
      "unful": 4353,
      "unpr": 4354,
      "unint": 4355,
      "uncomm": 4356,
      "sho": 4357,
      "shake": 4358,
      "shakes": 4359,
      "conce": 4360,
      "worry": 4361,
      "fred": 4362,
      "##earted": 4363,
      "scale": 4364,
      "scope": 4365,
      "##aint": 4366,
      "span": 4367,
      "spears": 4368,
      "dies": 4369,
      "##ateur": 4370,
      "doze": 4371,
      "soder": 4372,
      "neg": 4373,
      "neat": 4374,
      "neigh": 4375,
      "prove": 4376,
      "impl": 4377,
      "clin": 4378,
      "clos": 4379,
      "##udo": 4380,
      "##udge": 4381,
      "percept": 4382,
      "##quet": 4383,
      "manhood": 4384,
      "##plays": 4385,
      "lew": 4386,
      "flo": 4387,
      "flag": 4388,
      "flimsy": 4389,
      "##itty": 4390,
      "arch": 4391,
      "argu": 4392,
      "argent": 4393,
      "prin": 4394,
      "print": 4395,
      "prime": 4396,
      "##aught": 4397,
      "amateur": 4398,
      "bruck": 4399,
      "bling": 4400,
      "crush": 4401,
      "crude": 4402,
      "crisp": 4403,
      "##acing": 4404,
      "##acity": 4405,
      "##ensity": 4406,
      "compos": 4407,
      "justify": 4408,
      "precise": 4409,
      "slick": 4410,
      "slip": 4411,
      "##ounds": 4412,
      "subvers": 4413,
      "overly": 4414,
      "overst": 4415,
      "overall": 4416,
      "overwr": 4417,
      "##avors": 4418,
      "##ultane": 4419,
      "smack": 4420,
      "meets": 4421,
      "teacher": 4422,
      "interviews": 4423,
      "realizing": 4424,
      "realize": 4425,
      "talk": 4426,
      "##bergh": 4427,
      "hearts": 4428,
      "serve": 4429,
      "serves": 4430,
      "warri": 4431,
      "trav": 4432,
      "trap": 4433,
      "writ": 4434,
      "longer": 4435,
      "appear": 4436,
      "appears": 4437,
      "indiff": 4438,
      "newcom": 4439,
      "myself": 4440,
      "insign": 4441,
      "laughed": 4442,
      "awfully": 4443,
      "##ismo": 4444,
      "scenic": 4445,
      "older": 4446,
      "styles": 4447,
      "simultane": 4448,
      "cheek": 4449,
      "backd": 4450,
      "backgr": 4451,
      "obsc": 4452,
      "obnox": 4453,
      "thrills": 4454,
      "thrillers": 4455,
      "##aze": 4456,
      "carry": 4457,
      "afric": 4458,
      "bug": 4459,
      "built": 4460,
      "buoyant": 4461,
      "pleaser": 4462,
      "evident": 4463,
      "unfolds": 4464,
      "academ": 4465,
      "farce": 4466,
      "iron": 4467,
      "incre": 4468,
      "incess": 4469,
      "incoher": 4470,
      "vehic": 4471,
      "refuge": 4472,
      "references": 4473,
      "glor": 4474,
      "consistent": 4475,
      "conserv": 4476,
      "##issed": 4477,
      "phon": 4478,
      "dullest": 4479,
      "schtick": 4480,
      "fewer": 4481,
      "providing": 4482,
      "younger": 4483,
      "eyed": 4484,
      "marri": 4485,
      "marginal": 4486,
      "polished": 4487,
      "sincer": 4488,
      "distur": 4489,
      "minds": 4490,
      "confused": 4491,
      "confidence": 4492,
      "deftly": 4493,
      "finale": 4494,
      "sway": 4495,
      "secrets": 4496,
      "cohes": 4497,
      "animat": 4498,
      "delights": 4499,
      "##ification": 4500,
      "childlike": 4501,
      "showc": 4502,
      "format": 4503,
      "demanding": 4504,
      "videos": 4505,
      "unsentiment": 4506,
      "barney": 4507,
      "brave": 4508,
      "##iculate": 4509,
      "quirks": 4510,
      "capture": 4511,
      "ode": 4512,
      "started": 4513,
      "impressions": 4514,
      "freshly": 4515,
      "valuable": 4516,
      "ache": 4517,
      "repe": 4518,
      "strain": 4519,
      "punching": 4520,
      "retread": 4521,
      "returns": 4522,
      "leads": 4523,
      "admire": 4524,
      "admission": 4525,
      "steers": 4526,
      "dramatically": 4527,
      "complexity": 4528,
      "touched": 4529,
      "common": 4530,
      "fourth": 4531,
      "insights": 4532,
      "misery": 4533,
      "convince": 4534,
      "convinced": 4535,
      "damn": 4536,
      "fantastic": 4537,
      "affected": 4538,
      "difference": 4539,
      "current": 4540,
      "lets": 4541,
      "rah": 4542,
      "soulful": 4543,
      "frustration": 4544,
      "trademark": 4545,
      "psychologically": 4546,
      "journal": 4547,
      "oppress": 4548,
      "historically": 4549,
      "considered": 4550,
      "disappointing": 4551,
      "chris": 4552,
      "graceful": 4553,
      "skillfully": 4554,
      "melodramatic": 4555,
      "supporting": 4556,
      "complications": 4557,
      "follows": 4558,
      "particular": 4559,
      "obsess": 4560,
      "destro": 4561,
      "destination": 4562,
      "escapism": 4563,
      "savage": 4564,
      "expression": 4565,
      "absurdity": 4566,
      "spectacular": 4567,
      "condition": 4568,
      "regard": 4569,
      "regret": 4570,
      "celebrated": 4571,
      "laborious": 4572,
      "missing": 4573,
      "sandler": 4574,
      "squand": 4575,
      "straightfor": 4576,
      "machismo": 4577,
      "saccharine": 4578,
      "type": 4579,
      "gangs": 4580,
      "striking": 4581,
      "shameless": 4582,
      "shamelessly": 4583,
      "amazingly": 4584,
      "weakness": 4585,
      "apparently": 4586,
      "communal": 4587,
      "observation": 4588,
      "superficiality": 4589,
      "faced": 4590,
      "gender": 4591,
      "layers": 4592,
      "numbingly": 4593,
      "speak": 4594,
      "speaking": 4595,
      "sparkling": 4596,
      "emerges": 4597,
      "resonance": 4598,
      "respectable": 4599,
      "handsome": 4600,
      "involved": 4601,
      "authority": 4602,
      "biopic": 4603,
      "dancing": 4604,
      "lingering": 4605,
      "madonna": 4606,
      "encou": 4607,
      "encounter": 4608,
      "procession": 4609,
      "embraces": 4610,
      "horrible": 4611,
      "wait": 4612,
      "total": 4613,
      "atmosphere": 4614,
      "reminds": 4615,
      "remembering": 4616,
      "recording": 4617,
      "maintains": 4618,
      "sportsmen": 4619,
      "radical": 4620,
      "release": 4621,
      "several": 4622,
      "splendid": 4623,
      "manners": 4624,
      "appreciate": 4625,
      "profoundly": 4626,
      "sacrifice": 4627,
      "protagonists": 4628,
      "focus": 4629,
      "mistake": 4630,
      "inherent": 4631,
      "inherently": 4632,
      "diverse": 4633,
      "climactic": 4634,
      "clums": 4635,
      "clumsy": 4636,
      "loaded": 4637,
      "carried": 4638,
      "immediate": 4639,
      "borders": 4640,
      "celluloid": 4641,
      "jolts": 4642,
      "random": 4643,
      "wallace": 4644,
      "intricate": 4645,
      "sobering": 4646,
      "measure": 4647,
      "significant": 4648,
      "executed": 4649,
      "sneaks": 4650,
      "stinker": 4651,
      "existence": 4652,
      "endeavor": 4653,
      "resemb": 4654,
      "builds": 4655,
      "sensuality": 4656,
      "1999": 4657,
      "embarrassment": 4658,
      "dreadful": 4659,
      "guns": 4660,
      "roger": 4661,
      "wisdom": 4662,
      "##ville": 4663,
      "moviegoers": 4664,
      "plodding": 4665,
      "mythic": 4666,
      "distinguished": 4667,
      "mysterious": 4668,
      "sympathetic": 4669,
      "cylind": 4670,
      "candy": 4671,
      "cynical": 4672,
      "domestic": 4673,
      "daughter": 4674,
      "misfire": 4675,
      "sisterhood": 4676,
      "wedding": 4677,
      "##heimer": 4678,
      "aspires": 4679,
      "sloppily": 4680,
      "screenwriter": 4681,
      "recycled": 4682,
      "broomfield": 4683,
      "sophomoric": 4684,
      "harmless": 4685,
      "atmospheric": 4686,
      "tongue": 4687,
      "pokemon": 4688,
      "caricature": 4689,
      "settles": 4690,
      "behavior": 4691,
      "sacrificing": 4692,
      "japanese": 4693,
      "lopez": 4694,
      "ocean": 4695,
      "pseudo": 4696,
      "silliness": 4697,
      "##girls": 4698,
      "##edictable": 4699,
      "inescapable": 4700,
      "staggeringly": 4701,
      "whatever": 4702,
      "although": 4703,
      "unfulfill": 4704,
      "unpredictable": 4705,
      "uncommonly": 4706,
      "soderbergh": 4707,
      "neighbor": 4708,
      "bruckheimer": 4709,
      "subversive": 4710,
      "insignific": 4711,
      "simultaneously": 4712,
      "african": 4713,
      "vehicle": 4714,
      "refugees": 4715,
      "conservative": 4716,
      "sincerity": 4717,
      "unsentimental": 4718,
      "straightforward": 4719,
      "cylinders": 4720,
      "**": 4721,
      "aver": 4722,
      "ath": 4723,
      "aus": 4724,
      "ba": 4725,
      "ber": 4726,
      "bow": 4727,
      "bol": 4728,
      "boo": 4729,
      "bite": 4730,
      "bread": 4731,
      "caut": 4732,
      "corr": 4733,
      "counter": 4734,
      "din": 4735,
      "die": 4736,
      "dong": 4737,
      "doll": 4738,
      "dope": 4739,
      "ec": 4740,
      "eager": 4741,
      "fab": 4742,
      "fro": 4743,
      "father": 4744,
      "fier": 4745,
      "fitting": 4746,
      "gar": 4747,
      "gidd": 4748,
      "giving": 4749,
      "gimm": 4750,
      "hat": 4751,
      "hed": 4752,
      "hay": 4753,
      "hong": 4754,
      "hook": 4755,
      "hang": 4756,
      "icon": 4757,
      "jar": 4758,
      "jag": 4759,
      "jumbo": 4760,
      "kong": 4761,
      "kung": 4762,
      "lan": 4763,
      "lie": 4764,
      "lust": 4765,
      "lows": 4766,
      "luc": 4767,
      "lump": 4768,
      "lousy": 4769,
      "mut": 4770,
      "mcc": 4771,
      "maw": 4772,
      "moun": 4773,
      "nin": 4774,
      "nation": 4775,
      "national": 4776,
      "ol": 4777,
      "oo": 4778,
      "om": 4779,
      "pa": 4780,
      "pas": 4781,
      "rous": 4782,
      "rated": 4783,
      "rote": 4784,
      "ranks": 4785,
      "sent": 4786,
      "tep": 4787,
      "tax": 4788,
      "tatt": 4789,
      "tattered": 4790,
      "task": 4791,
      "uh": 4792,
      "upl": 4793,
      "vin": 4794,
      "vit": 4795,
      "viet": 4796,
      "vital": 4797,
      "wra": 4798,
      "wide": 4799,
      "wears": 4800,
      "wearing": 4801,
      "washed": 4802,
      "zero": 4803,
      "##aque": 4804,
      "##nan": 4805,
      "##nel": 4806,
      "##national": 4807,
      "##eu": 4808,
      "##eous": 4809,
      "##egg": 4810,
      "##rie": 4811,
      "##ratic": 4812,
      "##ruct": 4813,
      "##ronic": 4814,
      "##lo": 4815,
      "##lk": 4816,
      "##len": 4817,
      "##lers": 4818,
      "##life": 4819,
      "##lasting": 4820,
      "##gers": 4821,
      "##uce": 4822,
      "##upt": 4823,
      "##ucial": 4824,
      "##urable": 4825,
      "##uasive": 4826,
      "##dash": 4827,
      "##ira": 4828,
      "##ike": 4829,
      "##iently": 4830,
      "##ka": 4831,
      "##kin": 4832,
      "##kish": 4833,
      "##mull": 4834,
      "##mother": 4835,
      "##tog": 4836,
      "##falls": 4837,
      "##yr": 4838,
      "##yac": 4839,
      "##yll": 4840,
      "##cast": 4841,
      "##cock": 4842,
      "##vity": 4843,
      "##zz": 4844,
      "##zing": 4845,
      "##hen": 4846,
      "##pic": 4847,
      "##power": 4848,
      "##band": 4849,
      "##boy": 4850,
      "##with": 4851,
      "thick": 4852,
      "thumb": 4853,
      "##inent": 4854,
      "##ert": 4855,
      "##nders": 4856,
      "##ats": 4857,
      "##atty": 4858,
      "##ingers": 4859,
      "##oring": 4860,
      "##orad": 4861,
      "##orous": 4862,
      "##orate": 4863,
      "##arant": 4864,
      "##arious": 4865,
      "anderson": 4866,
      "##alant": 4867,
      "##alds": 4868,
      "##itor": 4869,
      "##itter": 4870,
      "##itative": 4871,
      "##itivity": 4872,
      "##anely": 4873,
      "##anza": 4874,
      "##isation": 4875,
      "##ication": 4876,
      "##icism": 4877,
      "inad": 4878,
      "inner": 4879,
      "inapp": 4880,
      "ingr": 4881,
      "##omacy": 4882,
      "##ilot": 4883,
      "##leby": 4884,
      "##asingly": 4885,
      "##uter": 4886,
      "stro": 4887,
      "state": 4888,
      "stone": 4889,
      "stops": 4890,
      "##stal": 4891,
      "bew": 4892,
      "bear": 4893,
      "beast": 4894,
      "beings": 4895,
      "##ulent": 4896,
      "anth": 4897,
      "##raw": 4898,
      "##rand": 4899,
      "##ghan": 4900,
      "rely": 4901,
      "rever": 4902,
      "reck": 4903,
      "repl": 4904,
      "reven": 4905,
      "##imen": 4906,
      "##iminal": 4907,
      "whine": 4908,
      "whimsy": 4909,
      "ask": 4910,
      "ash": 4911,
      "asks": 4912,
      "witted": 4913,
      "filling": 4914,
      "##olation": 4915,
      "suit": 4916,
      "sudden": 4917,
      "chab": 4918,
      "chief": 4919,
      "choice": 4920,
      "##verse": 4921,
      "##teresting": 4922,
      "comment": 4923,
      "##ooper": 4924,
      "##sect": 4925,
      "##aken": 4926,
      "##akable": 4927,
      "##ables": 4928,
      "##abby": 4929,
      "##ersc": 4930,
      "##urity": 4931,
      "ligh": 4932,
      "sees": 4933,
      "seven": 4934,
      "season": 4935,
      "semen": 4936,
      "##ume": 4937,
      "##uming": 4938,
      "##uman": 4939,
      "enh": 4940,
      "##roc": 4941,
      "##room": 4942,
      "##roph": 4943,
      "altog": 4944,
      "exagger": 4945,
      "unh": 4946,
      "unab": 4947,
      "shir": 4948,
      "shines": 4949,
      "shrew": 4950,
      "##the": 4951,
      "convers": 4952,
      "conco": 4953,
      "concent": 4954,
      "worn": 4955,
      "haw": 4956,
      "scott": 4957,
      "notwith": 4958,
      "spr": 4959,
      "spell": 4960,
      "spend": 4961,
      "spright": 4962,
      "sporad": 4963,
      "atroc": 4964,
      "dipl": 4965,
      "intent": 4966,
      "intol": 4967,
      "doses": 4968,
      "soggy": 4969,
      "charge": 4970,
      "charmer": 4971,
      "acts": 4972,
      "##usive": 4973,
      "##igree": 4974,
      "proced": 4975,
      "profic": 4976,
      "imax": 4977,
      "likeable": 4978,
      "allow": 4979,
      "cloying": 4980,
      "ord": 4981,
      "organ": 4982,
      "##udes": 4983,
      "lobb": 4984,
      "manage": 4985,
      "outstanding": 4986,
      "##plic": 4987,
      "leon": 4988,
      "lends": 4989,
      "league": 4990,
      "flamb": 4991,
      "poem": 4992,
      "##ittedly": 4993,
      "everlasting": 4994,
      "arrog": 4995,
      "##pered": 4996,
      "ups": 4997,
      "throw": 4998,
      "amiable": 4999,
      "##ivier": 5000,
      "qual": 5001,
      "##ictory": 5002,
      "brim": 5003,
      "bride": 5004,
      "weeks": 5005,
      "blow": 5006,
      "blown": 5007,
      "offend": 5008,
      "crud": 5009,
      "crucial": 5010,
      "criminal": 5011,
      "##epend": 5012,
      "adv": 5013,
      "adds": 5014,
      "adren": 5015,
      "anybody": 5016,
      "##acc": 5017,
      "performed": 5018,
      "compar": 5019,
      "compuls": 5020,
      "competent": 5021,
      "computer": 5022,
      "disqu": 5023,
      "discon": 5024,
      "discipl": 5025,
      "ended": 5026,
      "enduring": 5027,
      "subtly": 5028,
      "cann": 5029,
      "##ifying": 5030,
      "smear": 5031,
      "evening": 5032,
      "international": 5033,
      "delus": 5034,
      "grating": 5035,
      "grinder": 5036,
      "talky": 5037,
      "strength": 5038,
      "##weet": 5039,
      "##weight": 5040,
      "holds": 5041,
      "serenity": 5042,
      "sermon": 5043,
      "service": 5044,
      "warning": 5045,
      "desire": 5046,
      "desired": 5047,
      "taken": 5048,
      "##ocused": 5049,
      "##neider": 5050,
      "longest": 5051,
      "aggress": 5052,
      "colors": 5053,
      "appet": 5054,
      "##phet": 5055,
      "grab": 5056,
      "resolutely": 5057,
      "arts": 5058,
      "artists": 5059,
      "##oster": 5060,
      "plots": 5061,
      "plotted": 5062,
      "pepp": 5063,
      "interestingly": 5064,
      "insanely": 5065,
      "laughing": 5066,
      "underc": 5067,
      "underbel": 5068,
      "characteristic": 5069,
      "scenery": 5070,
      "scenario": 5071,
      "cliched": 5072,
      "enjoyment": 5073,
      "##anged": 5074,
      "trif": 5075,
      "triang": 5076,
      "joel": 5077,
      "similar": 5078,
      "known": 5079,
      "satir": 5080,
      "thrilling": 5081,
      "kinda": 5082,
      "caring": 5083,
      "carol": 5084,
      "pleasures": 5085,
      "pleasurable": 5086,
      "terry": 5087,
      "edgy": 5088,
      "powerfully": 5089,
      "##reek": 5090,
      "evol": 5091,
      "unfocused": 5092,
      "pretension": 5093,
      "pretensions": 5094,
      "pretends": 5095,
      "irish": 5096,
      "ironic": 5097,
      "kevin": 5098,
      "highs": 5099,
      "viewing": 5100,
      "crap": 5101,
      "creature": 5102,
      "glass": 5103,
      "gloss": 5104,
      "lesson": 5105,
      "specimen": 5106,
      "schiz": 5107,
      "schwar": 5108,
      "schneider": 5109,
      "guarant": 5110,
      "provides": 5111,
      "parody": 5112,
      "paint": 5113,
      "painted": 5114,
      "subjected": 5115,
      "poll": 5116,
      "righteous": 5117,
      "ellen": 5118,
      "finish": 5119,
      "mike": 5120,
      "swallow": 5121,
      "devote": 5122,
      "devolves": 5123,
      "passable": 5124,
      "keeping": 5125,
      "becoming": 5126,
      "elev": 5127,
      "showing": 5128,
      "sensibility": 5129,
      "monot": 5130,
      "generosity": 5131,
      "clichéd": 5132,
      "bracing": 5133,
      "undersc": 5134,
      "##ysical": 5135,
      "bitter": 5136,
      "bitters": 5137,
      "sadly": 5138,
      "entr": 5139,
      "enticing": 5140,
      "hokey": 5141,
      "quirk": 5142,
      "narratively": 5143,
      "putting": 5144,
      "##urdened": 5145,
      "##ographed": 5146,
      "engaged": 5147,
      "daytime": 5148,
      "terrifying": 5149,
      "credible": 5150,
      "credited": 5151,
      "credibility": 5152,
      "despair": 5153,
      "achingly": 5154,
      "facet": 5155,
      "invest": 5156,
      "dumbed": 5157,
      "contribut": 5158,
      "punishment": 5159,
      "populated": 5160,
      "100": 5161,
      "helps": 5162,
      "psyche": 5163,
      "infl": 5164,
      "familial": 5165,
      "box": 5166,
      "return": 5167,
      "lighting": 5168,
      "happiness": 5169,
      "admittedly": 5170,
      "##brid": 5171,
      "##onym": 5172,
      "dramatics": 5173,
      "snow": 5174,
      "snip": 5175,
      "transcend": 5176,
      "transform": 5177,
      "insightful": 5178,
      "misog": 5179,
      "reduced": 5180,
      "promised": 5181,
      "impossibly": 5182,
      "colored": 5183,
      "damned": 5184,
      "driven": 5185,
      "topic": 5186,
      "opaque": 5187,
      "signs": 5188,
      "astounding": 5189,
      "curling": 5190,
      "nowhere": 5191,
      "pathology": 5192,
      "souls": 5193,
      "soulless": 5194,
      "violent": 5195,
      "invention": 5196,
      "slapdash": 5197,
      "delicately": 5198,
      "traditional": 5199,
      "achieve": 5200,
      "dimension": 5201,
      "urine": 5202,
      "urgent": 5203,
      "##iette": 5204,
      "ambig": 5205,
      "disappointed": 5206,
      "disappointments": 5207,
      "reasonably": 5208,
      "technical": 5209,
      "harry": 5210,
      "purpos": 5211,
      "tarant": 5212,
      "anti": 5213,
      "expected": 5214,
      "substant": 5215,
      "substances": 5216,
      "sleep": 5217,
      "window": 5218,
      "chills": 5219,
      "balanced": 5220,
      "freud": 5221,
      "freeman": 5222,
      "saving": 5223,
      "savvy": 5224,
      "##bbled": 5225,
      "gradually": 5226,
      "earnestness": 5227,
      "accomplish": 5228,
      "stunning": 5229,
      "##uddled": 5230,
      "cheese": 5231,
      "fighting": 5232,
      "labored": 5233,
      "purely": 5234,
      "##ooping": 5235,
      "depressed": 5236,
      "intimacy": 5237,
      "smoother": 5238,
      "realistically": 5239,
      "brainless": 5240,
      "sharply": 5241,
      "sickening": 5242,
      "tells": 5243,
      "uninteresting": 5244,
      "developed": 5245,
      "provoke": 5246,
      "attempts": 5247,
      "breaks": 5248,
      "million": 5249,
      "packed": 5250,
      "emptiness": 5251,
      "meander": 5252,
      "idiots": 5253,
      "extreme": 5254,
      "frustratingly": 5255,
      "femin": 5256,
      "gangster": 5257,
      "strikes": 5258,
      "angst": 5259,
      "angry": 5260,
      "flashes": 5261,
      "critical": 5262,
      "innocent": 5263,
      "godard": 5264,
      "layer": 5265,
      "layered": 5266,
      "laziness": 5267,
      "numbing": 5268,
      "##rupt": 5269,
      "shaped": 5270,
      "shocks": 5271,
      "failure": 5272,
      "christian": 5273,
      "biography": 5274,
      "lurches": 5275,
      "prior": 5276,
      "funnier": 5277,
      "produced": 5278,
      "embracing": 5279,
      "unexpectedly": 5280,
      "parker": 5281,
      "waiting": 5282,
      "##peo": 5283,
      "##belie": 5284,
      "struggle": 5285,
      "struggling": 5286,
      "insulting": 5287,
      "demonstrates": 5288,
      "challenges": 5289,
      "dawson": 5290,
      "kicking": 5291,
      "torture": 5292,
      "##zenegg": 5293,
      "##lett": 5294,
      "released": 5295,
      "liberation": 5296,
      "liberating": 5297,
      "losing": 5298,
      "novels": 5299,
      "drawn": 5300,
      "extravagant": 5301,
      "extravaganza": 5302,
      "rhythm": 5303,
      "auto": 5304,
      "dishon": 5305,
      "focused": 5306,
      "rushed": 5307,
      "uncomfort": 5308,
      "diverting": 5309,
      "ponderous": 5310,
      "awkwardness": 5311,
      "carries": 5312,
      "detailed": 5313,
      "benef": 5314,
      "includes": 5315,
      "pulpy": 5316,
      "bordering": 5317,
      "fragment": 5318,
      "frightening": 5319,
      "hostage": 5320,
      "lady": 5321,
      "loosely": 5322,
      "muddled": 5323,
      "nuance": 5324,
      "nerds": 5325,
      "comfortable": 5326,
      "deceptions": 5327,
      "intricately": 5328,
      "properly": 5329,
      "measured": 5330,
      "continues": 5331,
      "succumbs": 5332,
      "astonishingly": 5333,
      "fifteen": 5334,
      "riot": 5335,
      "trees": 5336,
      "chaos": 5337,
      "chaotic": 5338,
      "shadow": 5339,
      "shadyac": 5340,
      "precious": 5341,
      "educational": 5342,
      "reflection": 5343,
      "guessing": 5344,
      "accurate": 5345,
      "accurately": 5346,
      "deliberately": 5347,
      "motivated": 5348,
      "cartoonish": 5349,
      "stereotypical": 5350,
      "grey": 5351,
      "pompeo": 5352,
      "peter": 5353,
      "songs": 5354,
      "tremend": 5355,
      "contrivances": 5356,
      "improvisation": 5357,
      "collapses": 5358,
      "folks": 5359,
      "juliette": 5360,
      "lunatic": 5361,
      "piano": 5362,
      "ruined": 5363,
      "rodri": 5364,
      "wooden": 5365,
      "incompetent": 5366,
      "ingenious": 5367,
      "exposition": 5368,
      "intentioned": 5369,
      "integrity": 5370,
      "heights": 5371,
      "slimed": 5372,
      "disgusting": 5373,
      "overbearing": 5374,
      "impersonal": 5375,
      "contradictory": 5376,
      "responsible": 5377,
      "buffs": 5378,
      "satisfyingly": 5379,
      "symbolism": 5380,
      "kissinger": 5381,
      "breathtaking": 5382,
      "overwhelming": 5383,
      "astron": 5384,
      "bullets": 5385,
      "husband": 5386,
      "hitchcock": 5387,
      "skew": 5388,
      "vapid": 5389,
      "thousands": 5390,
      "enormously": 5391,
      "exceedingly": 5392,
      "buttons": 5393,
      "divine": 5394,
      "transpar": 5395,
      "weaving": 5396,
      "prefer": 5397,
      "describe": 5398,
      "stylistic": 5399,
      "unforced": 5400,
      "irritating": 5401,
      "refusal": 5402,
      "consistently": 5403,
      "paranoid": 5404,
      "reputation": 5405,
      "improbable": 5406,
      "blockbuster": 5407,
      "irresistible": 5408,
      "fundamentally": 5409,
      "excruciatingly": 5410,
      "corniest": 5411,
      "pedigree": 5412,
      "environ": 5413,
      "diesel": 5414,
      "amateurish": 5415,
      "precisely": 5416,
      "overwrought": 5417,
      "indifference": 5418,
      "newcomer": 5419,
      "academy": 5420,
      "increasingly": 5421,
      "marriage": 5422,
      "animatronic": 5423,
      "repeated": 5424,
      "oppressively": 5425,
      "unfulfilling": 5426,
      "neighborhood": 5427,
      "insignificance": 5428,
      "***": 5429,
      "breadth": 5430,
      "corrupt": 5431,
      "dinner": 5432,
      "fierce": 5433,
      "giddy": 5434,
      "gimmick": 5435,
      "hedonistic": 5436,
      "mawkish": 5437,
      "rousing": 5438,
      "tattoo": 5439,
      "uplifting": 5440,
      "vitality": 5441,
      "vietn": 5442,
      "wrapped": 5443,
      "inadvert": 5444,
      "inappropriate": 5445,
      "anthony": 5446,
      "revenge": 5447,
      "chabrol": 5448,
      "commentary": 5449,
      "altogether": 5450,
      "shrewd": 5451,
      "concoct": 5452,
      "notwithstanding": 5453,
      "sprightly": 5454,
      "sporadic": 5455,
      "diplomacy": 5456,
      "lobby": 5457,
      "flamboyant": 5458,
      "arrogance": 5459,
      "adrenal": 5460,
      "compulsively": 5461,
      "underbelly": 5462,
      "schwarzenegg": 5463,
      "bittersweet": 5464,
      "schwarzenegger": 5465,
      "15": 5466,
      "17": 5467,
      "40": 5468,
      "70s": 5469,
      "84": 5470,
      "86": 5471,
      "ai": 5472,
      "apt": 5473,
      "bed": 5474,
      "bab": 5475,
      "bill": 5476,
      "bour": 5477,
      "bags": 5478,
      "bolly": 5479,
      "cu": 5480,
      "cri": 5481,
      "card": 5482,
      "cook": 5483,
      "cram": 5484,
      "caught": 5485,
      "dil": 5486,
      "dun": 5487,
      "dated": 5488,
      "duck": 5489,
      "dude": 5490,
      "dump": 5491,
      "eur": 5492,
      "ecc": 5493,
      "easter": 5494,
      "econ": 5495,
      "etern": 5496,
      "ego": 5497,
      "fis": 5498,
      "fame": 5499,
      "fidd": 5500,
      "fuss": 5501,
      "gro": 5502,
      "gear": 5503,
      "gore": 5504,
      "gap": 5505,
      "gust": 5506,
      "gos": 5507,
      "goth": 5508,
      "grew": 5509,
      "gasp": 5510,
      "hun": 5511,
      "hidden": 5512,
      "ick": 5513,
      "ilk": 5514,
      "jon": 5515,
      "jess": 5516,
      "jord": 5517,
      "kin": 5518,
      "kir": 5519,
      "kos": 5520,
      "kah": 5521,
      "kilt": 5522,
      "lin": 5523,
      "lon": 5524,
      "lau": 5525,
      "lord": 5526,
      "lags": 5527,
      "lines": 5528,
      "laid": 5529,
      "lunch": 5530,
      "lumin": 5531,
      "mour": 5532,
      "mass": 5533,
      "mental": 5534,
      "nut": 5535,
      "nur": 5536,
      "nif": 5537,
      "named": 5538,
      "ok": 5539,
      "oh": 5540,
      "pin": 5541,
      "piz": 5542,
      "pays": 5543,
      "porn": 5544,
      "plym": 5545,
      "ral": 5546,
      "ris": 5547,
      "rot": 5548,
      "row": 5549,
      "ray": 5550,
      "rig": 5551,
      "rough": 5552,
      "rub": 5553,
      "sed": 5554,
      "sil": 5555,
      "sam": 5556,
      "sade": 5557,
      "sib": 5558,
      "south": 5559,
      "sided": 5560,
      "tu": 5561,
      "ti": 5562,
      "ts": 5563,
      "tay": 5564,
      "tout": 5565,
      "tast": 5566,
      "tap": 5567,
      "tier": 5568,
      "torn": 5569,
      "tuck": 5570,
      "tensions": 5571,
      "va": 5572,
      "vid": 5573,
      "vac": 5574,
      "vint": 5575,
      "vanity": 5576,
      "wre": 5577,
      "went": 5578,
      "wid": 5579,
      "wave": 5580,
      "wishing": 5581,
      "##aus": 5582,
      "##aith": 5583,
      "##ners": 5584,
      "##ningly": 5585,
      "##nia": 5586,
      "##noon": 5587,
      "##ean": 5588,
      "##eper": 5589,
      "##rum": 5590,
      "##rough": 5591,
      "##rates": 5592,
      "##resh": 5593,
      "##ruous": 5594,
      "##ront": 5595,
      "##ratively": 5596,
      "##rida": 5597,
      "##lor": 5598,
      "##lly": 5599,
      "##lig": 5600,
      "##lies": 5601,
      "##lown": 5602,
      "##liness": 5603,
      "##lantic": 5604,
      "##ga": 5605,
      "##gence": 5606,
      "##gram": 5607,
      "##game": 5608,
      "##uation": 5609,
      "##uces": 5610,
      "##ups": 5611,
      "##ded": 5612,
      "##dan": 5613,
      "##dot": 5614,
      "##dam": 5615,
      "##done": 5616,
      "##dles": 5617,
      "##deningly": 5618,
      "##iat": 5619,
      "##iam": 5620,
      "##iful": 5621,
      "##iating": 5622,
      "##iency": 5623,
      "##iosity": 5624,
      "##ole": 5625,
      "##och": 5626,
      "##oked": 5627,
      "##kovich": 5628,
      "##kwer": 5629,
      "##mable": 5630,
      "##matic": 5631,
      "##mans": 5632,
      "##tis": 5633,
      "##taste": 5634,
      "##tinent": 5635,
      "##side": 5636,
      "##snan": 5637,
      "##fs": 5638,
      "##fell": 5639,
      "##fare": 5640,
      "##fty": 5641,
      "##yam": 5642,
      "##yny": 5643,
      "##cable": 5644,
      "##card": 5645,
      "##cating": 5646,
      "##creen": 5647,
      "##vas": 5648,
      "##vall": 5649,
      "##vigor": 5650,
      "##vitable": 5651,
      "##zog": 5652,
      "##ha": 5653,
      "##ham": 5654,
      "##haps": 5655,
      "##post": 5656,
      "##bble": 5657,
      "##bles": 5658,
      "##brand": 5659,
      "##wone": 5660,
      "##00": 5661,
      "##joint": 5662,
      "##ñuel": 5663,
      "thro": 5664,
      "thud": 5665,
      "##ercial": 5666,
      "##esy": 5667,
      "##ndred": 5668,
      "##atant": 5669,
      "##atile": 5670,
      "##atisf": 5671,
      "##inging": 5672,
      "##orates": 5673,
      "##orality": 5674,
      "##orpor": 5675,
      "##ener": 5676,
      "##enan": 5677,
      "##enet": 5678,
      "##enely": 5679,
      "##ennes": 5680,
      "##onious": 5681,
      "##arat": 5682,
      "##arre": 5683,
      "##edo": 5684,
      "##eder": 5685,
      "##ales": 5686,
      "##alan": 5687,
      "##alented": 5688,
      "##ita": 5689,
      "##angh": 5690,
      "##anth": 5691,
      "##anley": 5692,
      "##isive": 5693,
      "##isine": 5694,
      "##isters": 5695,
      "##icy": 5696,
      "##iced": 5697,
      "inim": 5698,
      "inse": 5699,
      "inuit": 5700,
      "toil": 5701,
      "tool": 5702,
      "toback": 5703,
      "##rend": 5704,
      "##recating": 5705,
      "##omically": 5706,
      "##omely": 5707,
      "##omnia": 5708,
      "##omercial": 5709,
      "##ilmable": 5710,
      "##lex": 5711,
      "##leged": 5712,
      "##eld": 5713,
      "##eliness": 5714,
      "##elons": 5715,
      "##asels": 5716,
      "##enter": 5717,
      "##entric": 5718,
      "isra": 5719,
      "isolation": 5720,
      "##utching": 5721,
      "stal": 5722,
      "stol": 5723,
      "stard": 5724,
      "stead": 5725,
      "stopp": 5726,
      "status": 5727,
      "##stac": 5728,
      "##stated": 5729,
      "beer": 5730,
      "##ulate": 5731,
      "moore": 5732,
      "movement": 5733,
      "molly": 5734,
      "anch": 5735,
      "anne": 5736,
      "##che": 5737,
      "##raid": 5738,
      "##raging": 5739,
      "rece": 5740,
      "reass": 5741,
      "onsc": 5742,
      "##etime": 5743,
      "##imal": 5744,
      "wholes": 5745,
      "aside": 5746,
      "assem": 5747,
      "witness": 5748,
      "##irm": 5749,
      "##irts": 5750,
      "##olic": 5751,
      "sung": 5752,
      "cher": 5753,
      "choo": 5754,
      "chore": 5755,
      "champ": 5756,
      "choose": 5757,
      "##vering": 5758,
      "force": 5759,
      "former": 5760,
      "##akening": 5761,
      "##abit": 5762,
      "##abre": 5763,
      "##abam": 5764,
      "##ablish": 5765,
      "##aborate": 5766,
      "##unchy": 5767,
      "##urance": 5768,
      "separ": 5769,
      "##ribably": 5770,
      "##umble": 5771,
      "envelop": 5772,
      "##road": 5773,
      "##rops": 5774,
      "alleg": 5775,
      "album": 5776,
      "alleged": 5777,
      "alabam": 5778,
      "##agand": 5779,
      "moviemak": 5780,
      "unk": 5781,
      "unment": 5782,
      "unass": 5783,
      "unbelie": 5784,
      "shag": 5785,
      "shop": 5786,
      "shelf": 5787,
      "shining": 5788,
      "shifting": 5789,
      "shabby": 5790,
      "shyam": 5791,
      "shenan": 5792,
      "shangh": 5793,
      "##thday": 5794,
      "##thearted": 5795,
      "##through": 5796,
      "##istoc": 5797,
      "conn": 5798,
      "convey": 5799,
      "worship": 5800,
      "fren": 5801,
      "frida": 5802,
      "delect": 5803,
      "deeper": 5804,
      "##antage": 5805,
      "haph": 5806,
      "abroad": 5807,
      "##ella": 5808,
      "##elled": 5809,
      "scoo": 5810,
      "scors": 5811,
      "screw": 5812,
      "scattered": 5813,
      "scores": 5814,
      "space": 5815,
      "spiff": 5816,
      "spaces": 5817,
      "spont": 5818,
      "atop": 5819,
      "atlantic": 5820,
      "dips": 5821,
      "diaries": 5822,
      "intensity": 5823,
      "dose": 5824,
      "##asts": 5825,
      "##aporates": 5826,
      "##ffy": 5827,
      "##ffic": 5828,
      "##ffled": 5829,
      "##igans": 5830,
      "neo": 5831,
      "propos": 5832,
      "program": 5833,
      "##usted": 5834,
      "##ustroph": 5835,
      "imb": 5836,
      "##herent": 5837,
      "plight": 5838,
      "clo": 5839,
      "clash": 5840,
      "clock": 5841,
      "clenching": 5842,
      "clutching": 5843,
      "orch": 5844,
      "order": 5845,
      "##udable": 5846,
      "##orton": 5847,
      "lose": 5848,
      "loved": 5849,
      "perverse": 5850,
      "pertinent": 5851,
      "perhaps": 5852,
      "##ppings": 5853,
      "##acks": 5854,
      "##ongruous": 5855,
      "##pton": 5856,
      "##icking": 5857,
      "manh": 5858,
      "##ploy": 5859,
      "##place": 5860,
      "flop": 5861,
      "flip": 5862,
      "flacc": 5863,
      "poise": 5864,
      "##ittently": 5865,
      "##venile": 5866,
      "perfunct": 5867,
      "arg": 5868,
      "ararat": 5869,
      "aristoc": 5870,
      "timing": 5871,
      "##prise": 5872,
      "nostal": 5873,
      "amid": 5874,
      "amused": 5875,
      "amorality": 5876,
      "##inee": 5877,
      "worked": 5878,
      "directions": 5879,
      "##ivated": 5880,
      "took": 5881,
      "##ictive": 5882,
      "brush": 5883,
      "bridge": 5884,
      "bruce": 5885,
      "webs": 5886,
      "weasels": 5887,
      "somebody": 5888,
      "blast": 5889,
      "blind": 5890,
      "blip": 5891,
      "blurry": 5892,
      "blatant": 5893,
      "heist": 5894,
      "crushing": 5895,
      "adject": 5896,
      "adoles": 5897,
      "emph": 5898,
      "employ": 5899,
      "##ensical": 5900,
      "##ensible": 5901,
      "compet": 5902,
      "##ourceful": 5903,
      "##odes": 5904,
      "##ization": 5905,
      "##ensely": 5906,
      "slo": 5907,
      "slack": 5908,
      "disp": 5909,
      "disco": 5910,
      "disjoint": 5911,
      "endlessly": 5912,
      "##eccable": 5913,
      "lifeless": 5914,
      "lifetime": 5915,
      "subord": 5916,
      "subte": 5917,
      "sublim": 5918,
      "canad": 5919,
      "cannes": 5920,
      "canvas": 5921,
      "##ift": 5922,
      "##ifer": 5923,
      "##ifice": 5924,
      "##ified": 5925,
      "overtly": 5926,
      "##ulty": 5927,
      "##ipe": 5928,
      "##ipid": 5929,
      "smiles": 5930,
      "teach": 5931,
      "minimal": 5932,
      "enters": 5933,
      "enterprise": 5934,
      "twink": 5935,
      "twenty": 5936,
      "herzog": 5937,
      "impul": 5938,
      "impart": 5939,
      "impenet": 5940,
      "impeccable": 5941,
      "grin": 5942,
      "grows": 5943,
      "gritty": 5944,
      "goers": 5945,
      "string": 5946,
      "rembrand": 5947,
      "hollow": 5948,
      "looked": 5949,
      "humorless": 5950,
      "screenings": 5951,
      "heartbreak": 5952,
      "warfare": 5953,
      "dramat": 5954,
      "dramas": 5955,
      "##ached": 5956,
      "trapped": 5957,
      "traffic": 5958,
      "trappings": 5959,
      "##ocy": 5960,
      "longing": 5961,
      "##ondz": 5962,
      "aging": 5963,
      "appropri": 5964,
      "applies": 5965,
      "individ": 5966,
      "indesc": 5967,
      "indians": 5968,
      "inducing": 5969,
      "indication": 5970,
      "yearning": 5971,
      "##phic": 5972,
      "gravity": 5973,
      "graphic": 5974,
      "reserved": 5975,
      "resourceful": 5976,
      "articulate": 5977,
      "artifice": 5978,
      "news": 5979,
      "##osterous": 5980,
      "##ibited": 5981,
      "roman": 5982,
      "##vention": 5983,
      "##ventful": 5984,
      "insistent": 5985,
      "insomnia": 5986,
      "insipid": 5987,
      "efficient": 5988,
      "awed": 5989,
      "awakening": 5990,
      "parts": 5991,
      "particip": 5992,
      "underm": 5993,
      "underlying": 5994,
      "understated": 5995,
      "betters": 5996,
      "players": 5997,
      "casts": 5998,
      "owes": 5999,
      "faulty": 6000,
      "humane": 6001,
      "downbeat": 6002,
      "simone": 6003,
      "chew": 6004,
      "cheer": 6005,
      "charms": 6006,
      "charmless": 6007,
      "knack": 6008,
      "obstac": 6009,
      "##uction": 6010,
      "##azard": 6011,
      "##trap": 6012,
      "cares": 6013,
      "carved": 6014,
      "carvey": 6015,
      "afraid": 6016,
      "bubble": 6017,
      "buñuel": 6018,
      "skies": 6019,
      "term": 6020,
      "edits": 6021,
      "eddie": 6022,
      "cletis": 6023,
      "evaporates": 6024,
      "finding": 6025,
      "##elessness": 6026,
      "unfaith": 6027,
      "unfilmable": 6028,
      "below": 6029,
      "sweat": 6030,
      "recipe": 6031,
      "iran": 6032,
      "incorpor": 6033,
      "incisive": 6034,
      "incongruous": 6035,
      "highway": 6036,
      "refresh": 6037,
      "craig": 6038,
      "creating": 6039,
      "glum": 6040,
      "glorious": 6041,
      "relent": 6042,
      "relate": 6043,
      "relative": 6044,
      "relief": 6045,
      "consid": 6046,
      "thinks": 6047,
      "handful": 6048,
      "handling": 6049,
      "pointed": 6050,
      "lesser": 6051,
      "##nerable": 6052,
      "staring": 6053,
      "afternoon": 6054,
      "aftertaste": 6055,
      "caper": 6056,
      "capable": 6057,
      "##gging": 6058,
      "##gged": 6059,
      "expert": 6060,
      "experiment": 6061,
      "experien": 6062,
      "species": 6063,
      "dullard": 6064,
      "solondz": 6065,
      "marina": 6066,
      "parable": 6067,
      "paints": 6068,
      "visualize": 6069,
      "wondering": 6070,
      "cuts": 6071,
      "documented": 6072,
      "defies": 6073,
      "account": 6074,
      "accuse": 6075,
      "elb": 6076,
      "elaborate": 6077,
      "switch": 6078,
      "classical": 6079,
      "drab": 6080,
      "drains": 6081,
      "##ressing": 6082,
      "##strous": 6083,
      "cover": 6084,
      "coherent": 6085,
      "smartest": 6086,
      "warming": 6087,
      "satisfies": 6088,
      "sweetness": 6089,
      "portrays": 6090,
      "elevate": 6091,
      "childhood": 6092,
      "showgirls": 6093,
      "maternal": 6094,
      "instinct": 6095,
      "##ophren": 6096,
      "demented": 6097,
      "demograph": 6098,
      "month": 6099,
      "monstrous": 6100,
      "unsatisf": 6101,
      "generation": 6102,
      "generating": 6103,
      "generated": 6104,
      "seriousness": 6105,
      "bargain": 6106,
      "brand": 6107,
      "undead": 6108,
      "##yssey": 6109,
      "born": 6110,
      "inspire": 6111,
      "uneasy": 6112,
      "uneventful": 6113,
      "absolut": 6114,
      "hoary": 6115,
      "hupper": 6116,
      "hundred": 6117,
      "odyssey": 6118,
      "truck": 6119,
      "richly": 6120,
      "richard": 6121,
      "depart": 6122,
      "depict": 6123,
      "depiction": 6124,
      "deprecating": 6125,
      "impressively": 6126,
      "strongly": 6127,
      "strongest": 6128,
      "drun": 6129,
      "drown": 6130,
      "drug": 6131,
      "drowned": 6132,
      "credulous": 6133,
      "rocks": 6134,
      "predictably": 6135,
      "wildlife": 6136,
      "inviting": 6137,
      "report": 6138,
      "repulsive": 6139,
      "replete": 6140,
      "efforts": 6141,
      "effortless": 6142,
      "effortlessly": 6143,
      "equations": 6144,
      "secondhand": 6145,
      "detract": 6146,
      "details": 6147,
      "punk": 6148,
      "pungent": 6149,
      "honesty": 6150,
      "105": 6151,
      "101": 6152,
      "base": 6153,
      "basement": 6154,
      "menacing": 6155,
      "melanch": 6156,
      "##ricated": 6157,
      "infect": 6158,
      "inform": 6159,
      "infomercial": 6160,
      "brilliance": 6161,
      "blackout": 6162,
      "politically": 6163,
      "boat": 6164,
      "boom": 6165,
      "boasting": 6166,
      "brosnan": 6167,
      "##retentious": 6168,
      "suffer": 6169,
      "leaden": 6170,
      "slowly": 6171,
      "cleverly": 6172,
      "cleverness": 6173,
      "matters": 6174,
      "stein": 6175,
      "adventures": 6176,
      "middling": 6177,
      "snore": 6178,
      "##itched": 6179,
      "committed": 6180,
      "deaths": 6181,
      "courageous": 6182,
      "centering": 6183,
      "centered": 6184,
      "patrol": 6185,
      "projects": 6186,
      "transcends": 6187,
      "heads": 6188,
      "added": 6189,
      "importance": 6190,
      "miserable": 6191,
      "misanth": 6192,
      "redeem": 6193,
      "##anna": 6194,
      "possibilities": 6195,
      "damning": 6196,
      "drives": 6197,
      "fantas": 6198,
      "inevitable": 6199,
      "profile": 6200,
      "hopelessly": 6201,
      "signpost": 6202,
      "treats": 6203,
      "improvement": 6204,
      "astray": 6205,
      "letter": 6206,
      "letting": 6207,
      "merch": 6208,
      "raised": 6209,
      "raunchy": 6210,
      "inventiveness": 6211,
      "urg": 6212,
      "disappointment": 6213,
      "disappointingly": 6214,
      "immensely": 6215,
      "gracefully": 6216,
      "skills": 6217,
      "productions": 6218,
      "20th": 6219,
      "double": 6220,
      "harsh": 6221,
      "anton": 6222,
      "anticip": 6223,
      "antwone": 6224,
      "combining": 6225,
      "seattle": 6226,
      "unpretentious": 6227,
      "derrida": 6228,
      "fix": 6229,
      "fiennes": 6230,
      "illustr": 6231,
      "sleaz": 6232,
      "walk": 6233,
      "walt": 6234,
      "winds": 6235,
      "behold": 6236,
      "blandness": 6237,
      "destruct": 6238,
      "dreams": 6239,
      "surely": 6240,
      "expresses": 6241,
      "dogs": 6242,
      "troubled": 6243,
      "corner": 6244,
      "conduct": 6245,
      "condensed": 6246,
      "condescend": 6247,
      "jackie": 6248,
      "stunningly": 6249,
      "jokester": 6250,
      "gorgeously": 6251,
      "malkovich": 6252,
      "ridicu": 6253,
      "sandra": 6254,
      "lively": 6255,
      "digest": 6256,
      "truthful": 6257,
      "indulgence": 6258,
      "dares": 6259,
      "feardot": 6260,
      "turf": 6261,
      "variety": 6262,
      "delivery": 6263,
      "breakthrough": 6264,
      "ripening": 6265,
      "bloody": 6266,
      "idiocy": 6267,
      "irrepar": 6268,
      "eyeballs": 6269,
      "exploiting": 6270,
      "burst": 6271,
      "calm": 6272,
      "calc": 6273,
      "costly": 6274,
      "costner": 6275,
      "limp": 6276,
      "singing": 6277,
      "verve": 6278,
      "consciously": 6279,
      "featuring": 6280,
      "britney": 6281,
      "critics": 6282,
      "sexuality": 6283,
      "ethics": 6284,
      "ethnic": 6285,
      "fury": 6286,
      "facile": 6287,
      "pulse": 6288,
      "sources": 6289,
      "expands": 6290,
      "unconventional": 6291,
      "shape": 6292,
      "shapeless": 6293,
      "speed": 6294,
      "leaving": 6295,
      "cruelty": 6296,
      "collision": 6297,
      "failing": 6298,
      "momentum": 6299,
      "photographed": 6300,
      "dana": 6301,
      "maddeningly": 6302,
      "pulls": 6303,
      "salv": 6304,
      "salton": 6305,
      "tunes": 6306,
      "tunney": 6307,
      "victories": 6308,
      "tomorrow": 6309,
      "companionable": 6310,
      "enthusiastic": 6311,
      "horrifying": 6312,
      "gutsy": 6313,
      "hammy": 6314,
      "hampered": 6315,
      "midway": 6316,
      "nonsensical": 6317,
      "palma": 6318,
      "pileup": 6319,
      "conspi": 6320,
      "conspir": 6321,
      "introspect": 6322,
      "quietly": 6323,
      "disguised": 6324,
      "insultingly": 6325,
      "faithful": 6326,
      "elegant": 6327,
      "demonstrate": 6328,
      "demonstrating": 6329,
      "recommendation": 6330,
      "peculiarly": 6331,
      "duvall": 6332,
      "dawns": 6333,
      "hypoc": 6334,
      "jerry": 6335,
      "jerking": 6336,
      "kicks": 6337,
      "luke": 6338,
      "lucy": 6339,
      "untalented": 6340,
      "loser": 6341,
      "losers": 6342,
      "discord": 6343,
      "discuss": 6344,
      "surrender": 6345,
      "appreciated": 6346,
      "draws": 6347,
      "drawing": 6348,
      "commercialism": 6349,
      "dreck": 6350,
      "hopeful": 6351,
      "laudable": 6352,
      "rollicking": 6353,
      "##nects": 6354,
      "inhalant": 6355,
      "inhabit": 6356,
      "stirs": 6357,
      "searing": 6358,
      "search": 6359,
      "concern": 6360,
      "concert": 6361,
      "propagand": 6362,
      "climate": 6363,
      "arrives": 6364,
      "sketch": 6365,
      "friendly": 6366,
      "immediacy": 6367,
      "followed": 6368,
      "consciousness": 6369,
      "unimaginable": 6370,
      "aplomb": 6371,
      "ballistic": 6372,
      "bonding": 6373,
      "establish": 6374,
      "geriat": 6375,
      "juvenile": 6376,
      "muddle": 6377,
      "nerve": 6378,
      "wallop": 6379,
      "movements": 6380,
      "reacting": 6381,
      "reactionary": 6382,
      "unlikely": 6383,
      "deceptively": 6384,
      "claustroph": 6385,
      "grounded": 6386,
      "idealistic": 6387,
      "distinctly": 6388,
      "distinctive": 6389,
      "absorb": 6390,
      "absorbing": 6391,
      "sleeve": 6392,
      "sleepless": 6393,
      "bogdan": 6394,
      "learn": 6395,
      "learning": 6396,
      "mcd": 6397,
      "matinee": 6398,
      "pushes": 6399,
      "river": 6400,
      "rapid": 6401,
      "##arnation": 6402,
      "unrealized": 6403,
      "screaming": 6404,
      "postcard": 6405,
      "primarily": 6406,
      "crypt": 6407,
      "endeavors": 6408,
      "resemble": 6409,
      "consumed": 6410,
      "deliberate": 6411,
      "embarrassed": 6412,
      "innovation": 6413,
      "innovative": 6414,
      "traditionally": 6415,
      "stereotypes": 6416,
      "hybrid": 6417,
      "language": 6418,
      "praise": 6419,
      "powers": 6420,
      "renowned": 6421,
      "stretches": 6422,
      "noticeably": 6423,
      "prevents": 6424,
      "preposterous": 6425,
      "dismissed": 6426,
      "tendency": 6427,
      "intermittently": 6428,
      "objective": 6429,
      "recogniz": 6430,
      "miracle": 6431,
      "contrivance": 6432,
      "collapse": 6433,
      "luridly": 6434,
      "suggests": 6435,
      "dressed": 6436,
      "dubious": 6437,
      "dubbed": 6438,
      "etc": 6439,
      "ferr": 6440,
      "harris": 6441,
      "practically": 6442,
      "sarandon": 6443,
      "tackles": 6444,
      "##works": 6445,
      "unrelent": 6446,
      "constant": 6447,
      "connection": 6448,
      "degree": 6449,
      "charisma": 6450,
      "charismatic": 6451,
      "necessary": 6452,
      "locations": 6453,
      "locales": 6454,
      "legal": 6455,
      "fleshed": 6456,
      "subtlest": 6457,
      "strictly": 6458,
      "sanctimony": 6459,
      "sanctimonious": 6460,
      "birthday": 6461,
      "casual": 6462,
      "dangerous": 6463,
      "sorrowful": 6464,
      "threatened": 6465,
      "foreign": 6466,
      "alienation": 6467,
      "arnold": 6468,
      "brooklyn": 6469,
      "adequately": 6470,
      "surroundings": 6471,
      "woefully": 6472,
      "evokes": 6473,
      "crawl": 6474,
      "1958": 6475,
      "nicholas": 6476,
      "victimized": 6477,
      "introduction": 6478,
      "bizarre": 6479,
      "bombastic": 6480,
      "echelons": 6481,
      "lecture": 6482,
      "macabre": 6483,
      "multi": 6484,
      "nickleby": 6485,
      "russian": 6486,
      "tykwer": 6487,
      "western": 6488,
      "reinvigor": 6489,
      "rendered": 6490,
      "rewarding": 6491,
      "chuckle": 6492,
      "compromise": 6493,
      "shakesp": 6494,
      "clinic": 6495,
      "perceptive": 6496,
      "lewis": 6497,
      "floor": 6498,
      "arguably": 6499,
      "composition": 6500,
      "warrior": 6501,
      "writers": 6502,
      "backdrops": 6503,
      "obnoxious": 6504,
      "ironies": 6505,
      "incessant": 6506,
      "incoherence": 6507,
      "phoniness": 6508,
      "schticky": 6509,
      "cohesion": 6510,
      "destroying": 6511,
      "weaknesses": 6512,
      "encouraging": 6513,
      "clumsily": 6514,
      "average": 6515,
      "baffled": 6516,
      "frozen": 6517,
      "lucratively": 6518,
      "olivier": 6519,
      "oozing": 6520,
      "thumbs": 6521,
      "lighthearted": 6522,
      "exaggerated": 6523,
      "shirt": 6524,
      "concentrates": 6525,
      "intolerable": 6526,
      "ordinary": 6527,
      "blowout": 6528,
      "disconnects": 6529,
      "discipline": 6530,
      "peppered": 6531,
      "undercut": 6532,
      "trifle": 6533,
      "satirical": 6534,
      "schizophren": 6535,
      "pollution": 6536,
      "underscore": 6537,
      "quirkily": 6538,
      "contribution": 6539,
      "snipes": 6540,
      "misogyny": 6541,
      "tarantino": 6542,
      "substantial": 6543,
      "dishonest": 6544,
      "uncomfortably": 6545,
      "tremendous": 6546,
      "astronomically": 6547,
      "hitchcockian": 6548,
      "skewed": 6549,
      "bourne": 6550,
      "bollywood": 6551,
      "cuisine": 6552,
      "dumped": 6553,
      "europe": 6554,
      "eccentric": 6555,
      "eastern": 6556,
      "fisher": 6557,
      "fiddle": 6558,
      "gusto": 6559,
      "jordan": 6560,
      "kahlo": 6561,
      "liners": 6562,
      "loneliness": 6563,
      "luminous": 6564,
      "nutty": 6565,
      "nifty": 6566,
      "plympton": 6567,
      "ralph": 6568,
      "tsai": 6569,
      "tastelessness": 6570,
      "vintage": 6571,
      "wreck": 6572,
      "##manship": 6573,
      "inimitable": 6574,
      "toilet": 6575,
      "israel": 6576,
      "stolid": 6577,
      "stardom": 6578,
      "onscreen": 6579,
      "wholesome": 6580,
      "chooses": 6581,
      "enveloping": 6582,
      "alabama": 6583,
      "moviemaking": 6584,
      "unassuming": 6585,
      "shyamalan": 6586,
      "shenanigans": 6587,
      "shanghai": 6588,
      "delectable": 6589,
      "haphazard": 6590,
      "scorsese": 6591,
      "spontane": 6592,
      "flaccid": 6593,
      "perfunctory": 6594,
      "nostalgic": 6595,
      "website": 6596,
      "adjective": 6597,
      "adolescent": 6598,
      "emphas": 6599,
      "discovery": 6600,
      "disjointed": 6601,
      "subordinate": 6602,
      "subtext": 6603,
      "impenetrable": 6604,
      "rembrandt": 6605,
      "individual": 6606,
      "indescribably": 6607,
      "obstacles": 6608,
      "unfaithful": 6609,
      "experienced": 6610,
      "absolute": 6611,
      "huppert": 6612,
      "patrolmen": 6613,
      "misanthrop": 6614,
      "condescending": 6615,
      "ridicule": 6616,
      "feardotcom": 6617,
      "introspection": 6618,
      "propaganda": 6619,
      "establishes": 6620,
      "geriatric": 6621,
      "claustrophob": 6622,
      "bogdanovich": 6623,
      "reinvigorated": 6624,
      "schizophrenia": 6625,
      "14": 6626,
      "4ever": 6627,
      "50s": 6628,
      "83": 6629,
      "88": 6630,
      "80": 6631,
      "80s": 6632,
      "ack": 6633,
      "awe": 6634,
      "aims": 6635,
      "aleck": 6636,
      "bess": 6637,
      "bam": 6638,
      "bri": 6639,
      "bout": 6640,
      "band": 6641,
      "bart": 6642,
      "bard": 6643,
      "bark": 6644,
      "bree": 6645,
      "biting": 6646,
      "bought": 6647,
      "bio": 6648,
      "bones": 6649,
      "bino": 6650,
      "borrow": 6651,
      "burns": 6652,
      "burdened": 6653,
      "cg": 6654,
      "cable": 6655,
      "cate": 6656,
      "cens": 6657,
      "cass": 6658,
      "cash": 6659,
      "cater": 6660,
      "cumb": 6661,
      "coun": 6662,
      "cia": 6663,
      "cope": 6664,
      "cup": 6665,
      "ded": 6666,
      "dot": 6667,
      "dud": 6668,
      "due": 6669,
      "dare": 6670,
      "dual": 6671,
      "doof": 6672,
      "drop": 6673,
      "drew": 6674,
      "dah": 6675,
      "dashing": 6676,
      "eer": 6677,
      "eve": 6678,
      "eck": 6679,
      "eld": 6680,
      "ease": 6681,
      "eats": 6682,
      "fu": 6683,
      "fess": 6684,
      "fet": 6685,
      "fri": 6686,
      "fag": 6687,
      "fate": 6688,
      "fus": 6689,
      "fog": 6690,
      "fond": 6691,
      "fatter": 6692,
      "fuel": 6693,
      "falling": 6694,
      "field": 6695,
      "fathers": 6696,
      "fumes": 6697,
      "fuddled": 6698,
      "gon": 6699,
      "gle": 6700,
      "gel": 6701,
      "gul": 6702,
      "gill": 6703,
      "gong": 6704,
      "gib": 6705,
      "gaze": 6706,
      "gyll": 6707,
      "greek": 6708,
      "hen": 6709,
      "hill": 6710,
      "hick": 6711,
      "hating": 6712,
      "hired": 6713,
      "hane": 6714,
      "hitting": 6715,
      "hallow": 6716,
      "hipp": 6717,
      "jam": 6718,
      "jum": 6719,
      "jac": 6720,
      "jost": 6721,
      "jaz": 6722,
      "jeal": 6723,
      "jank": 6724,
      "jenn": 6725,
      "kal": 6726,
      "kitch": 6727,
      "kaf": 6728,
      "kraw": 6729,
      "ler": 6730,
      "lit": 6731,
      "lion": 6732,
      "lick": 6733,
      "lav": 6734,
      "lane": 6735,
      "lensed": 6736,
      "mam": 6737,
      "map": 6738,
      "mong": 6739,
      "mish": 6740,
      "mors": 6741,
      "mature": 6742,
      "mumbo": 6743,
      "net": 6744,
      "norm": 6745,
      "nav": 6746,
      "nash": 6747,
      "nause": 6748,
      "nels": 6749,
      "naked": 6750,
      "norton": 6751,
      "olym": 6752,
      "pb": 6753,
      "patch": 6754,
      "pink": 6755,
      "pump": 6756,
      "paid": 6757,
      "pique": 6758,
      "pounding": 6759,
      "pushing": 6760,
      "pyr": 6761,
      "pilot": 6762,
      "rum": 6763,
      "rise": 6764,
      "round": 6765,
      "rach": 6766,
      "rans": 6767,
      "rib": 6768,
      "ridd": 6769,
      "ramp": 6770,
      "rival": 6771,
      "rude": 6772,
      "rowd": 6773,
      "razz": 6774,
      "roles": 6775,
      "rumin": 6776,
      "sab": 6777,
      "sag": 6778,
      "savor": 6779,
      "sisters": 6780,
      "tart": 6781,
      "tens": 6782,
      "turd": 6783,
      "tub": 6784,
      "tied": 6785,
      "tund": 6786,
      "tides": 6787,
      "tiny": 6788,
      "ven": 6789,
      "vent": 6790,
      "vast": 6791,
      "voy": 6792,
      "wet": 6793,
      "wiz": 6794,
      "wound": 6795,
      "wash": 6796,
      "wang": 6797,
      "wins": 6798,
      "watt": 6799,
      "wert": 6800,
      "xx": 6801,
      "xer": 6802,
      "zomb": 6803,
      "##aim": 6804,
      "##nu": 6805,
      "##nat": 6806,
      "##night": 6807,
      "##ey": 6808,
      "##eel": 6809,
      "##eble": 6810,
      "##ron": 6811,
      "##rion": 6812,
      "##rid": 6813,
      "##rity": 6814,
      "##rich": 6815,
      "##rictive": 6816,
      "##lom": 6817,
      "##lock": 6818,
      "##gal": 6819,
      "##gory": 6820,
      "##gile": 6821,
      "##gage": 6822,
      "##gically": 6823,
      "##uf": 6824,
      "##uum": 6825,
      "##uber": 6826,
      "##uracy": 6827,
      "##uwer": 6828,
      "##di": 6829,
      "##down": 6830,
      "##duced": 6831,
      "##iate": 6832,
      "##iates": 6833,
      "##iams": 6834,
      "##oes": 6835,
      "##oly": 6836,
      "##over": 6837,
      "##oast": 6838,
      "##oved": 6839,
      "##oitation": 6840,
      "##kh": 6841,
      "##kill": 6842,
      "##kind": 6843,
      "##kids": 6844,
      "##me": 6845,
      "##more": 6846,
      "##mind": 6847,
      "##marine": 6848,
      "##tish": 6849,
      "##town": 6850,
      "##tabl": 6851,
      "##san": 6852,
      "##sque": 6853,
      "##sizing": 6854,
      "##fly": 6855,
      "##fan": 6856,
      "##fig": 6857,
      "##fia": 6858,
      "##frie": 6859,
      "##cat": 6860,
      "##cle": 6861,
      "##col": 6862,
      "##cers": 6863,
      "##cure": 6864,
      "##cies": 6865,
      "##cingly": 6866,
      "##cult": 6867,
      "##cope": 6868,
      "##czy": 6869,
      "##cratic": 6870,
      "##xing": 6871,
      "##xedo": 6872,
      "##vak": 6873,
      "##vest": 6874,
      "##vous": 6875,
      "##zp": 6876,
      "##zed": 6877,
      "##zard": 6878,
      "##zzy": 6879,
      "##hear": 6880,
      "##hmer": 6881,
      "##human": 6882,
      "##hibited": 6883,
      "##pro": 6884,
      "##pous": 6885,
      "##pable": 6886,
      "##pleas": 6887,
      "##pret": 6888,
      "##prem": 6889,
      "##penter": 6890,
      "##bin": 6891,
      "##bit": 6892,
      "##bial": 6893,
      "##bound": 6894,
      "##bulent": 6895,
      "##west": 6896,
      "##will": 6897,
      "##wich": 6898,
      "##writ": 6899,
      "##witz": 6900,
      "##ée": 6901,
      "thir": 6902,
      "##inous": 6903,
      "##inian": 6904,
      "##inarily": 6905,
      "##erfig": 6906,
      "##esb": 6907,
      "##esis": 6908,
      "##esome": 6909,
      "##esque": 6910,
      "##ndane": 6911,
      "##ato": 6912,
      "##athing": 6913,
      "##atiating": 6914,
      "##orp": 6915,
      "##orter": 6916,
      "##orial": 6917,
      "##orient": 6918,
      "##enom": 6919,
      "##enha": 6920,
      "##onous": 6921,
      "##ara": 6922,
      "##aris": 6923,
      "##arad": 6924,
      "##arian": 6925,
      "oft": 6926,
      "##edge": 6927,
      "##aled": 6928,
      "##ito": 6929,
      "##ites": 6930,
      "##itage": 6931,
      "##itles": 6932,
      "##anism": 6933,
      "##isly": 6934,
      "##isse": 6935,
      "##iscipl": 6936,
      "##ica": 6937,
      "##icz": 6938,
      "##icag": 6939,
      "##icide": 6940,
      "##icates": 6941,
      "##icuous": 6942,
      "inest": 6943,
      "inade": 6944,
      "inject": 6945,
      "inquis": 6946,
      "toler": 6947,
      "todd": 6948,
      "##reg": 6949,
      "##rey": 6950,
      "##omonic": 6951,
      "##ilation": 6952,
      "##ilted": 6953,
      "##lem": 6954,
      "##eled": 6955,
      "##elity": 6956,
      "##eline": 6957,
      "##elids": 6958,
      "##ases": 6959,
      "##asing": 6960,
      "##asion": 6961,
      "##asons": 6962,
      "##ctric": 6963,
      "##entin": 6964,
      "##entional": 6965,
      "##otion": 6966,
      "##otting": 6967,
      "##otely": 6968,
      "##otivated": 6969,
      "##utes": 6970,
      "ster": 6971,
      "stim": 6972,
      "stab": 6973,
      "stag": 6974,
      "station": 6975,
      "stell": 6976,
      "stall": 6977,
      "stif": 6978,
      "stalls": 6979,
      "stamp": 6980,
      "stanley": 6981,
      "stilted": 6982,
      "##sters": 6983,
      "##stances": 6984,
      "##stract": 6985,
      "beg": 6986,
      "begu": 6987,
      "##ulating": 6988,
      "molest": 6989,
      "anal": 6990,
      "anem": 6991,
      "angu": 6992,
      "anci": 6993,
      "anonym": 6994,
      "##cht": 6995,
      "##chan": 6996,
      "##chio": 6997,
      "##chwitz": 6998,
      "##raz": 6999,
      "##rauwer": 7000,
      "##ieting": 7001,
      "##ievous": 7002,
      "reign": 7003,
      "renders": 7004,
      "reasons": 7005,
      "##essions": 7006,
      "##eterm": 7007,
      "##etrating": 7008,
      "##imable": 7009,
      "##imper": 7010,
      "##immer": 7011,
      "##owed": 7012,
      "whale": 7013,
      "whiff": 7014,
      "whimper": 7015,
      "asian": 7016,
      "##idity": 7017,
      "##idedly": 7018,
      "##idelity": 7019,
      "##irited": 7020,
      "##olig": 7021,
      "##olph": 7022,
      "suits": 7023,
      "suitable": 7024,
      "susan": 7025,
      "suprem": 7026,
      "chou": 7027,
      "chom": 7028,
      "chick": 7029,
      "chilly": 7030,
      "chines": 7031,
      "chicag": 7032,
      "chasing": 7033,
      "##verbial": 7034,
      "forum": 7035,
      "forcing": 7036,
      "forceful": 7037,
      "##terday": 7038,
      "coma": 7039,
      "##oochy": 7040,
      "##sequ": 7041,
      "##aky": 7042,
      "##akingly": 7043,
      "##abeth": 7044,
      "##ersome": 7045,
      "##ersuasive": 7046,
      "##unky": 7047,
      "lip": 7048,
      "likes": 7049,
      "libert": 7050,
      "lizard": 7051,
      "seam": 7052,
      "sept": 7053,
      "seated": 7054,
      "seams": 7055,
      "##umen": 7056,
      "##umber": 7057,
      "##umstances": 7058,
      "ens": 7059,
      "enig": 7060,
      "ennu": 7061,
      "enrich": 7062,
      "##roarious": 7063,
      "alcat": 7064,
      "##aging": 7065,
      "##eming": 7066,
      "exit": 7067,
      "exuber": 7068,
      "unch": 7069,
      "unap": 7070,
      "shr": 7071,
      "shre": 7072,
      "shell": 7073,
      "shod": 7074,
      "ship": 7075,
      "shower": 7076,
      "shred": 7077,
      "shimmer": 7078,
      "##thod": 7079,
      "conqu": 7080,
      "concess": 7081,
      "conund": 7082,
      "conceived": 7083,
      "contains": 7084,
      "friday": 7085,
      "franc": 7086,
      "dean": 7087,
      "deem": 7088,
      "deals": 7089,
      "debt": 7090,
      "dealing": 7091,
      "hail": 7092,
      "haul": 7093,
      "abb": 7094,
      "ably": 7095,
      "abuse": 7096,
      "abundant": 7097,
      "abstract": 7098,
      "##ellingly": 7099,
      "scra": 7100,
      "scare": 7101,
      "scathing": 7102,
      "notion": 7103,
      "notable": 7104,
      "notorious": 7105,
      "##opher": 7106,
      "ate": 7107,
      "divers": 7108,
      "##ateau": 7109,
      "dod": 7110,
      "door": 7111,
      "##ooding": 7112,
      "##astically": 7113,
      "##aptrap": 7114,
      "socc": 7115,
      "soci": 7116,
      "##ffith": 7117,
      "##ffee": 7118,
      "##actured": 7119,
      "##uses": 7120,
      "##igious": 7121,
      "##igibb": 7122,
      "##iche": 7123,
      "probe": 7124,
      "proceed": 7125,
      "prospect": 7126,
      "prophet": 7127,
      "proverbial": 7128,
      "##usts": 7129,
      "##ustic": 7130,
      "image": 7131,
      "plum": 7132,
      "plumb": 7133,
      "feast": 7134,
      "feathers": 7135,
      "feeder": 7136,
      "feeble": 7137,
      "clot": 7138,
      "clone": 7139,
      "clown": 7140,
      "cloth": 7141,
      "club": 7142,
      "clunky": 7143,
      "claptrap": 7144,
      "##udent": 7145,
      "thank": 7146,
      "##ortal": 7147,
      "lock": 7148,
      "loving": 7149,
      "lovers": 7150,
      "lofty": 7151,
      "hash": 7152,
      "maker": 7153,
      "trust": 7154,
      "##andaries": 7155,
      "##ppie": 7156,
      "##ppled": 7157,
      "##ackaged": 7158,
      "##ongs": 7159,
      "##gend": 7160,
      "##ereal": 7161,
      "hispan": 7162,
      "##ickly": 7163,
      "managed": 7164,
      "manuf": 7165,
      "outcome": 7166,
      "##ploitation": 7167,
      "lend": 7168,
      "lean": 7169,
      "legend": 7170,
      "flies": 7171,
      "flib": 7172,
      "flower": 7173,
      "flail": 7174,
      "pool": 7175,
      "poses": 7176,
      "goodfell": 7177,
      "goodwill": 7178,
      "##reative": 7179,
      "##arded": 7180,
      "ard": 7181,
      "arbit": 7182,
      "timid": 7183,
      "humans": 7184,
      "upbeat": 7185,
      "uproarious": 7186,
      "throws": 7187,
      "prison": 7188,
      "prickly": 7189,
      "noble": 7190,
      "nobody": 7191,
      "novak": 7192,
      "amy": 7193,
      "##ivors": 7194,
      "quarter": 7195,
      "queen": 7196,
      "quentin": 7197,
      "quandaries": 7198,
      "##osion": 7199,
      "##osyn": 7200,
      "##oscope": 7201,
      "bron": 7202,
      "brow": 7203,
      "brits": 7204,
      "brought": 7205,
      "bratty": 7206,
      "brooding": 7207,
      "weave": 7208,
      "blame": 7209,
      "blime": 7210,
      "blues": 7211,
      "blax": 7212,
      "bluster": 7213,
      "cris": 7214,
      "##eped": 7215,
      "adhere": 7216,
      "adams": 7217,
      "##acency": 7218,
      "performing": 7219,
      "compellingly": 7220,
      "##ours": 7221,
      "##ourse": 7222,
      "mug": 7223,
      "muck": 7224,
      "mundane": 7225,
      "##izz": 7226,
      "##izabeth": 7227,
      "prejud": 7228,
      "##spirited": 7229,
      "disint": 7230,
      "discer": 7231,
      "dispos": 7232,
      "disbel": 7233,
      "displays": 7234,
      "dissect": 7235,
      "disorient": 7236,
      "welled": 7237,
      "##ecent": 7238,
      "##atchable": 7239,
      "lifted": 7240,
      "lifts": 7241,
      "yours": 7242,
      "willis": 7243,
      "williams": 7244,
      "submer": 7245,
      "subcon": 7246,
      "submarine": 7247,
      "canny": 7248,
      "##ifically": 7249,
      "overwor": 7250,
      "overpro": 7251,
      "genesis": 7252,
      "##ipher": 7253,
      "smash": 7254,
      "smoochy": 7255,
      "evenings": 7256,
      "everywhere": 7257,
      "rose": 7258,
      "rohmer": 7259,
      "mechan": 7260,
      "tea": 7261,
      "teens": 7262,
      "tends": 7263,
      "teleg": 7264,
      "interpret": 7265,
      "heralds": 7266,
      "heritage": 7267,
      "impulsive": 7268,
      "impudent": 7269,
      "surve": 7270,
      "grim": 7271,
      "grun": 7272,
      "grate": 7273,
      "grisly": 7274,
      "goals": 7275,
      "tales": 7276,
      "talked": 7277,
      "strang": 7278,
      "struck": 7279,
      "remote": 7280,
      "remotely": 7281,
      "seeming": 7282,
      "##ashedly": 7283,
      "screenwrit": 7284,
      "desirable": 7285,
      "##ache": 7286,
      "##aching": 7287,
      "actioners": 7288,
      "minutia": 7289,
      "tragically": 7290,
      "wrenching": 7291,
      "##oca": 7292,
      "##ocity": 7293,
      "##occhio": 7294,
      "##neath": 7295,
      "idol": 7296,
      "##onditional": 7297,
      "##othman": 7298,
      "agent": 7299,
      "colleg": 7300,
      "appropriate": 7301,
      "indo": 7302,
      "indeed": 7303,
      "independ": 7304,
      "indecent": 7305,
      "##phant": 7306,
      "artful": 7307,
      "artistic": 7308,
      "myopic": 7309,
      "##inking": 7310,
      "famous": 7311,
      "famine": 7312,
      "plotless": 7313,
      "##ibal": 7314,
      "##owship": 7315,
      "effic": 7316,
      "awry": 7317,
      "awareness": 7318,
      "awesome": 7319,
      "##isms": 7320,
      "underneath": 7321,
      "##scious": 7322,
      "##pressed": 7323,
      "howard": 7324,
      "##ledge": 7325,
      "enjoys": 7326,
      "enjoyably": 7327,
      "faces": 7328,
      "##angements": 7329,
      "styled": 7330,
      "stylings": 7331,
      "tripe": 7332,
      "humanist": 7333,
      "humanistic": 7334,
      "downsizing": 7335,
      "joe": 7336,
      "simulation": 7337,
      "cheat": 7338,
      "chekh": 7339,
      "bothers": 7340,
      "worldly": 7341,
      "backward": 7342,
      "knox": 7343,
      "oblig": 7344,
      "##enden": 7345,
      "emotion": 7346,
      "twohy": 7347,
      "harder": 7348,
      "##ocky": 7349,
      "carpenter": 7350,
      "afghan": 7351,
      "bubb": 7352,
      "surprised": 7353,
      "edges": 7354,
      "careful": 7355,
      "evade": 7356,
      "evolution": 7357,
      "excited": 7358,
      "acqu": 7359,
      "acute": 7360,
      "acumen": 7361,
      "beloved": 7362,
      "belongs": 7363,
      "mushy": 7364,
      "muscle": 7365,
      "swept": 7366,
      "recon": 7367,
      "recite": 7368,
      "keen": 7369,
      "incons": 7370,
      "incarnation": 7371,
      "engage": 7372,
      "english": 7373,
      "shoulders": 7374,
      "histrion": 7375,
      "highest": 7376,
      "highlight": 7377,
      "veiling": 7378,
      "viewed": 7379,
      "glo": 7380,
      "glow": 7381,
      "glued": 7382,
      "##ounters": 7383,
      "handle": 7384,
      "ears": 7385,
      "lessons": 7386,
      "##issism": 7387,
      "starving": 7388,
      "affords": 7389,
      "affleck": 7390,
      "affirm": 7391,
      "capacity": 7392,
      "phones": 7393,
      "phenom": 7394,
      "speculation": 7395,
      "specifically": 7396,
      "dullness": 7397,
      "morally": 7398,
      "schm": 7399,
      "scherfig": 7400,
      "turntabl": 7401,
      "intelligently": 7402,
      "guest": 7403,
      "guilt": 7404,
      "solace": 7405,
      "soldi": 7406,
      "solaris": 7407,
      "solomonic": 7408,
      "supernat": 7409,
      "eyre": 7410,
      "eyelids": 7411,
      "margin": 7412,
      "margar": 7413,
      "parent": 7414,
      "parad": 7415,
      "parental": 7416,
      "pained": 7417,
      "wonderous": 7418,
      "cutter": 7419,
      "cuteness": 7420,
      "cutesy": 7421,
      "portions": 7422,
      "sinister": 7423,
      "documentaries": 7424,
      "creations": 7425,
      "distant": 7426,
      "distort": 7427,
      "distanced": 7428,
      "ourselves": 7429,
      "defiance": 7430,
      "accuracy": 7431,
      "elusive": 7432,
      "elizabeth": 7433,
      "personas": 7434,
      "swords": 7435,
      "swooping": 7436,
      "swinging": 7437,
      "devos": 7438,
      "devices": 7439,
      "##apping": 7440,
      "##appiness": 7441,
      "classy": 7442,
      "passes": 7443,
      "cox": 7444,
      "coffee": 7445,
      "anime": 7446,
      "decision": 7447,
      "decidedly": 7448,
      "flickering": 7449,
      "perfection": 7450,
      "electric": 7451,
      "elephant": 7452,
      "##iantly": 7453,
      "media": 7454,
      "sensibilities": 7455,
      "sensitivity": 7456,
      "forms": 7457,
      "energ": 7458,
      "attitude": 7459,
      "demons": 7460,
      "monolog": 7461,
      "##wards": 7462,
      "barry": 7463,
      "brav": 7464,
      "undiscipl": 7465,
      "undeterm": 7466,
      "inspires": 7467,
      "explore": 7468,
      "explain": 7469,
      "explode": 7470,
      "explosion": 7471,
      "hobbled": 7472,
      "hoolig": 7473,
      "##raphed": 7474,
      "##opping": 7475,
      "capturing": 7476,
      "max": 7477,
      "callow": 7478,
      "darker": 7479,
      "darkness": 7480,
      "stuffing": 7481,
      "##lecting": 7482,
      "##ographical": 7483,
      "wherever": 7484,
      "freshness": 7485,
      "freshening": 7486,
      "stronger": 7487,
      "engagingly": 7488,
      "solidly": 7489,
      "drum": 7490,
      "droning": 7491,
      "girlfrie": 7492,
      "student": 7493,
      "studied": 7494,
      "terribly": 7495,
      "summertime": 7496,
      "rocky": 7497,
      "wince": 7498,
      "winners": 7499,
      "invigor": 7500,
      "invasion": 7501,
      "presents": 7502,
      "directionless": 7503,
      "heroine": 7504,
      "197": 7505,
      "equals": 7506,
      "strained": 7507,
      "standoff": 7508,
      "knowledge": 7509,
      "detached": 7510,
      "didactic": 7511,
      "punny": 7512,
      "popular": 7513,
      "pasta": 7514,
      "pastry": 7515,
      "pastiche": 7516,
      "bask": 7517,
      "infant": 7518,
      "infidelity": 7519,
      "extensive": 7520,
      "boots": 7521,
      "boasts": 7522,
      "broken": 7523,
      "broiling": 7524,
      "larry": 7525,
      "mainly": 7526,
      "operative": 7527,
      "pacino": 7528,
      "retool": 7529,
      "##ettes": 7530,
      "suffoc": 7531,
      "sufficient": 7532,
      "lightweight": 7533,
      "happens": 7534,
      "admit": 7535,
      "admitting": 7536,
      "admira": 7537,
      "grandpar": 7538,
      "grandkids": 7539,
      "stew": 7540,
      "steve": 7541,
      "steeped": 7542,
      "hilarity": 7543,
      "snl": 7544,
      "snap": 7545,
      "snail": 7546,
      "complacency": 7547,
      "center": 7548,
      "magical": 7549,
      "patiently": 7550,
      "projector": 7551,
      "projectile": 7552,
      "transvest": 7553,
      "headed": 7554,
      "addressing": 7555,
      "insightfully": 7556,
      "miscon": 7557,
      "##ioli": 7558,
      "promises": 7559,
      "meanspirited": 7560,
      "driver": 7561,
      "driving": 7562,
      "motives": 7563,
      "saying": 7564,
      "stepmother": 7565,
      "stephen": 7566,
      "earned": 7567,
      "hilariously": 7568,
      "hopes": 7569,
      "hopeless": 7570,
      "opening": 7571,
      "##grath": 7572,
      "improve": 7573,
      "improved": 7574,
      "majors": 7575,
      "curiosity": 7576,
      "finely": 7577,
      "merits": 7578,
      "mercy": 7579,
      "mergers": 7580,
      "pathos": 7581,
      "raise": 7582,
      "ugliness": 7583,
      "##lines": 7584,
      "inventing": 7585,
      "deadpan": 7586,
      "trade": 7587,
      "traditions": 7588,
      "dragons": 7589,
      "oppos": 7590,
      "urge": 7591,
      "tricky": 7592,
      "accompan": 7593,
      "joys": 7594,
      "joyless": 7595,
      "restrictive": 7596,
      "weirdly": 7597,
      "technique": 7598,
      "doug": 7599,
      "harv": 7600,
      "antics": 7601,
      "supply": 7602,
      "combat": 7603,
      "combined": 7604,
      "examine": 7605,
      "expectation": 7606,
      "expectations": 7607,
      "unpersuasive": 7608,
      "following": 7609,
      "illum": 7610,
      "michel": 7611,
      "nonjud": 7612,
      "tickled": 7613,
      "tickets": 7614,
      "versatile": 7615,
      "walked": 7616,
      "winded": 7617,
      "revision": 7618,
      "chiller": 7619,
      "crafty": 7620,
      "copies": 7621,
      "destiny": 7622,
      "dreamlike": 7623,
      "goofily": 7624,
      "##bbing": 7625,
      "expressive": 7626,
      "graduated": 7627,
      "understands": 7628,
      "absurdly": 7629,
      "thoughtfulness": 7630,
      "hugely": 7631,
      "accomplishment": 7632,
      "corpor": 7633,
      "corpse": 7634,
      "griffith": 7635,
      "horrend": 7636,
      "stunts": 7637,
      "region": 7638,
      "johnny": 7639,
      "virtu": 7640,
      "celebrate": 7641,
      "celebrity": 7642,
      "labor": 7643,
      "rhaps": 7644,
      "sandwich": 7645,
      "square": 7646,
      "squashed": 7647,
      "squareness": 7648,
      "##guez": 7649,
      "##shed": 7650,
      "##shine": 7651,
      "##otechn": 7652,
      "uncle": 7653,
      "uncreative": 7654,
      "unconditional": 7655,
      "crowdpleas": 7656,
      "smoking": 7657,
      "twisty": 7658,
      "##bertigibb": 7659,
      "elsewhere": 7660,
      "devastated": 7661,
      "simplemind": 7662,
      "sharpener": 7663,
      "court": 7664,
      "darling": 7665,
      "fearlessness": 7666,
      "teddy": 7667,
      "turbulent": 7668,
      "tasteful": 7669,
      "variant": 7670,
      "models": 7671,
      "uninhibited": 7672,
      "mannerisms": 7673,
      "delivering": 7674,
      "extraordinarily": 7675,
      "targeted": 7676,
      "breaking": 7677,
      "homicide": 7678,
      "lengths": 7679,
      "niches": 7680,
      "piecing": 7681,
      "package": 7682,
      "##warm": 7683,
      "##alyst": 7684,
      "##italize": 7685,
      "closely": 7686,
      "bloodshed": 7687,
      "slightest": 7688,
      "desperation": 7689,
      "idiotic": 7690,
      "idiotically": 7691,
      "idiosyn": 7692,
      "exploitative": 7693,
      "unexpl": 7694,
      "helped": 7695,
      "mediocrity": 7696,
      "burger": 7697,
      "breathing": 7698,
      "dazzle": 7699,
      "limbs": 7700,
      "verd": 7701,
      "##attan": 7702,
      "strike": 7703,
      "angels": 7704,
      "shooting": 7705,
      "critic": 7706,
      "critique": 7707,
      "triumphantly": 7708,
      "inclination": 7709,
      "marvelously": 7710,
      "portrayed": 7711,
      "assuredly": 7712,
      "communicates": 7713,
      "problematic": 7714,
      "derived": 7715,
      "observant": 7716,
      "philosophers": 7717,
      "ethical": 7718,
      "ethereal": 7719,
      "facing": 7720,
      "numbers": 7721,
      "sorry": 7722,
      "sorority": 7723,
      "source": 7724,
      "##aiian": 7725,
      "commerce": 7726,
      "shocking": 7727,
      "shockingly": 7728,
      "photo": 7729,
      "captivates": 7730,
      "openness": 7731,
      "christopher": 7732,
      "caton": 7733,
      "catalyst": 7734,
      "dancers": 7735,
      "fulfill": 7736,
      "figures": 7737,
      "knee": 7738,
      "lingers": 7739,
      "lingerie": 7740,
      "martial": 7741,
      "salt": 7742,
      "tunnel": 7743,
      "victims": 7744,
      "sucks": 7745,
      "succeeded": 7746,
      "encounters": 7747,
      "poetics": 7748,
      "earthly": 7749,
      "produce": 7750,
      "embraced": 7751,
      "opportunities": 7752,
      "horribly": 7753,
      "devastatingly": 7754,
      "avoids": 7755,
      "artificiality": 7756,
      "gutter": 7757,
      "midnight": 7758,
      "palpable": 7759,
      "parking": 7760,
      "##rade": 7761,
      "alternating": 7762,
      "alternately": 7763,
      "conspicu": 7764,
      "conspicuous": 7765,
      "##compoop": 7766,
      "disneyland": 7767,
      "struggled": 7768,
      "reminder": 7769,
      "remembered": 7770,
      "episodes": 7771,
      "maintaining": 7772,
      "astonish": 7773,
      "metaphysical": 7774,
      "duke": 7775,
      "durable": 7776,
      "eventually": 7777,
      "jerk": 7778,
      "luv": 7779,
      "numerous": 7780,
      "radiates": 7781,
      "##kenau": 7782,
      "stockwell": 7783,
      "beaten": 7784,
      "liberal": 7785,
      "severe": 7786,
      "spookily": 7787,
      "plainly": 7788,
      "offerings": 7789,
      "discourse": 7790,
      "roberto": 7791,
      "boredom": 7792,
      "exploring": 7793,
      "presentation": 7794,
      "extravagantly": 7795,
      "surfacey": 7796,
      "autop": 7797,
      "circus": 7798,
      "circuit": 7799,
      "circumstances": 7800,
      "laur": 7801,
      "pairing": 7802,
      "ravel": 7803,
      "towards": 7804,
      "italic": 7805,
      "staying": 7806,
      "sunshine": 7807,
      "searching": 7808,
      "conjures": 7809,
      "concerned": 7810,
      "propels": 7811,
      "loads": 7812,
      "compassionately": 7813,
      "determine": 7814,
      "magnetic": 7815,
      "pulpiness": 7816,
      "positively": 7817,
      "airless": 7818,
      "bonds": 7819,
      "denied": 7820,
      "esteem": 7821,
      "frailty": 7822,
      "fragile": 7823,
      "frighteningly": 7824,
      "juicy": 7825,
      "jolie": 7826,
      "laden": 7827,
      "laws": 7828,
      "nuances": 7829,
      "nuanced": 7830,
      "pitfalls": 7831,
      "randall": 7832,
      "wicked": 7833,
      "reaction": 7834,
      "require": 7835,
      "changes": 7836,
      "claim": 7837,
      "continuity": 7838,
      "imaginatively": 7839,
      "idealism": 7840,
      "significantly": 7841,
      "executive": 7842,
      "questionable": 7843,
      "sleeper": 7844,
      "dynamics": 7845,
      "boldly": 7846,
      "fifty": 7847,
      "mcgrath": 7848,
      "maturity": 7849,
      "milquet": 7850,
      "rental": 7851,
      "treas": 7852,
      "tearful": 7853,
      "yesterday": 7854,
      "unrecover": 7855,
      "smugly": 7856,
      "bucks": 7857,
      "educates": 7858,
      "incredible": 7859,
      "reflects": 7860,
      "motivations": 7861,
      "metaphorical": 7862,
      "dickensian": 7863,
      "aimless": 7864,
      "aimlessly": 7865,
      "baggage": 7866,
      "bodies": 7867,
      "bodied": 7868,
      "brightly": 7869,
      "greasy": 7870,
      "hotel": 7871,
      "hideously": 7872,
      "ignite": 7873,
      "panthe": 7874,
      "pompous": 7875,
      "praises": 7876,
      "reno": 7877,
      "tenacious": 7878,
      "tremors": 7879,
      "wiseman": 7880,
      "woozy": 7881,
      "##atorial": 7882,
      "stretched": 7883,
      "reaching": 7884,
      "chopsocky": 7885,
      "moviegoing": 7886,
      "unwatchable": 7887,
      "blanket": 7888,
      "prepackaged": 7889,
      "crackle": 7890,
      "miracles": 7891,
      "secretary": 7892,
      "1984": 7893,
      "mysteries": 7894,
      "ferocity": 7895,
      "folk": 7896,
      "freaks": 7897,
      "harrowing": 7898,
      "lunacy": 7899,
      "literally": 7900,
      "pianist": 7901,
      "rodan": 7902,
      "sara": 7903,
      "watery": 7904,
      "yuppie": 7905,
      "##lowicz": 7906,
      "##gmental": 7907,
      "incompreh": 7908,
      "ingenuity": 7909,
      "stooping": 7910,
      "unreligious": 7911,
      "constantly": 7912,
      "debrauwer": 7913,
      "intentionally": 7914,
      "necessarily": 7915,
      "heightened": 7916,
      "subtitles": 7917,
      "textbook": 7918,
      "impersonation": 7919,
      "survival": 7920,
      "survivors": 7921,
      "contradiction": 7922,
      "cleaner": 7923,
      "suspected": 7924,
      "barrels": 7925,
      "inexpress": 7926,
      "inexplic": 7927,
      "professionals": 7928,
      "dragonfly": 7929,
      "breathtakingly": 7930,
      "bleak": 7931,
      "birkenau": 7932,
      "casings": 7933,
      "daily": 7934,
      "danger": 7935,
      "optim": 7936,
      "pencil": 7937,
      "penetrating": 7938,
      "padding": 7939,
      "racist": 7940,
      "tightened": 7941,
      "vollett": 7942,
      "wondrous": 7943,
      "##aaaa": 7944,
      "##board": 7945,
      "##bumps": 7946,
      "permits": 7947,
      "arnie": 7948,
      "arrangements": 7949,
      "updating": 7950,
      "brooks": 7951,
      "adequate": 7952,
      "willingness": 7953,
      "surrounded": 7954,
      "resulted": 7955,
      "excesses": 7956,
      "bellyaching": 7957,
      "dependent": 7958,
      "nicholson": 7959,
      "ghosts": 7960,
      "surrealism": 7961,
      "bonus": 7962,
      "bankrupt": 7963,
      "cockney": 7964,
      "dustin": 7965,
      "dustbin": 7966,
      "fellowship": 7967,
      "goosebumps": 7968,
      "korea": 7969,
      "korean": 7970,
      "narcissism": 7971,
      "rambling": 7972,
      "weary": 7973,
      "wander": 7974,
      "wanders": 7975,
      "##nowable": 7976,
      "##nowled": 7977,
      "choices": 7978,
      "forthright": 7979,
      "semi": 7980,
      "unmotivated": 7981,
      "unintentional": 7982,
      "freddy": 7983,
      "freddie": 7984,
      "neglecting": 7985,
      "implaus": 7986,
      "closing": 7987,
      "argentine": 7988,
      "appeared": 7989,
      "background": 7990,
      "backgrounds": 7991,
      "obscenely": 7992,
      "bugsy": 7993,
      "gloriously": 7994,
      "glorified": 7995,
      "disturbing": 7996,
      "showcase": 7997,
      "showcases": 7998,
      "journalistic": 7999,
      "obsession": 8000,
      "regardless": 8001,
      "squanders": 8002,
      "encountering": 8003,
      "resembling": 8004,
      "dreadfulness": 8005,
      "athlet": 8006,
      "auschwitz": 8007,
      "bolero": 8008,
      "cautionary": 8009,
      "dopey": 8010,
      "ecological": 8011,
      "hatred": 8012,
      "hayek": 8013,
      "jaglom": 8014,
      "lanes": 8015,
      "mutilation": 8016,
      "mountain": 8017,
      "nincompoop": 8018,
      "ominous": 8019,
      "paul": 8020,
      "passe": 8021,
      "sentence": 8022,
      "tepid": 8023,
      "vincent": 8024,
      "##muller": 8025,
      "##picious": 8026,
      "ingratiating": 8027,
      "strokes": 8028,
      "bewild": 8029,
      "reverie": 8030,
      "recklessness": 8031,
      "replaced": 8032,
      "ashamed": 8033,
      "chiefly": 8034,
      "enhances": 8035,
      "unabashedly": 8036,
      "hawaiian": 8037,
      "springs": 8038,
      "atrociously": 8039,
      "intentions": 8040,
      "procedural": 8041,
      "proficient": 8042,
      "organized": 8043,
      "leonine": 8044,
      "qualify": 8045,
      "brimming": 8046,
      "crudup": 8047,
      "advantage": 8048,
      "comparison": 8049,
      "disquieting": 8050,
      "cannon": 8051,
      "smeary": 8052,
      "delusions": 8053,
      "sermonize": 8054,
      "triangle": 8055,
      "evolve": 8056,
      "guaranteed": 8057,
      "elevated": 8058,
      "monotonous": 8059,
      "entrée": 8060,
      "influ": 8061,
      "ambiguous": 8062,
      "purposes": 8063,
      "meanderings": 8064,
      "feminist": 8065,
      "benefit": 8066,
      "shadowy": 8067,
      "rodriguez": 8068,
      "transparent": 8069,
      "environment": 8070,
      "gimmicky": 8071,
      "vietnam": 8072,
      "inadvertent": 8073,
      "adrenalin": 8074,
      "crippled": 8075,
      "cookie": 8076,
      "fussing": 8077,
      "groan": 8078,
      "gaping": 8079,
      "gasping": 8080,
      "hunter": 8081,
      "jessica": 8082,
      "kinetically": 8083,
      "okay": 8084,
      "pinocchio": 8085,
      "risks": 8086,
      "rotoscope": 8087,
      "sedate": 8088,
      "sibling": 8089,
      "tuxedo": 8090,
      "taylor": 8091,
      "vidgame": 8092,
      "widow": 8093,
      "insecure": 8094,
      "steady": 8095,
      "receives": 8096,
      "reassuring": 8097,
      "assembled": 8098,
      "champion": 8099,
      "separation": 8100,
      "allegedly": 8101,
      "unknowable": 8102,
      "unbelievable": 8103,
      "shaggy": 8104,
      "conniving": 8105,
      "frenetic": 8106,
      "scooby": 8107,
      "proposal": 8108,
      "clooney": 8109,
      "orchest": 8110,
      "manhattan": 8111,
      "competence": 8112,
      "sublimely": 8113,
      "minimalist": 8114,
      "romancer": 8115,
      "incorporates": 8116,
      "experimentation": 8117,
      "elbowed": 8118,
      "instincts": 8119,
      "demographically": 8120,
      "department": 8121,
      "drunken": 8122,
      "infectious": 8123,
      "information": 8124,
      "redeems": 8125,
      "merchant": 8126,
      "urgently": 8127,
      "antonia": 8128,
      "anticipated": 8129,
      "illustrating": 8130,
      "sleaziness": 8131,
      "destructive": 8132,
      "conspiracy": 8133,
      "conspiratorial": 8134,
      "lukewarm": 8135,
      "recognizable": 8136,
      "unrelentingly": 8137,
      "shakespear": 8138,
      "undercuts": 8139,
      "european": 8140,
      "acknowled": 8141,
      "besson": 8142,
      "breezy": 8143,
      "binoche": 8144,
      "cgi": 8145,
      "category": 8146,
      "censure": 8147,
      "caterer": 8148,
      "cumbersome": 8149,
      "doofus": 8150,
      "dahmer": 8151,
      "eerily": 8152,
      "evelyn": 8153,
      "ecks": 8154,
      "elder": 8155,
      "fessenden": 8156,
      "fagioli": 8157,
      "fogging": 8158,
      "glee": 8159,
      "gilliam": 8160,
      "gyllenha": 8161,
      "henry": 8162,
      "haneke": 8163,
      "halloween": 8164,
      "hippie": 8165,
      "jumps": 8166,
      "jazzy": 8167,
      "janklowicz": 8168,
      "jennifer": 8169,
      "kalvert": 8170,
      "kitchen": 8171,
      "kafka": 8172,
      "krawczy": 8173,
      "leroy": 8174,
      "lavish": 8175,
      "mamet": 8176,
      "mongering": 8177,
      "morsels": 8178,
      "nelson": 8179,
      "pyrotechn": 8180,
      "rachel": 8181,
      "ransacks": 8182,
      "riddled": 8183,
      "rowdy": 8184,
      "ruminations": 8185,
      "tundra": 8186,
      "venture": 8187,
      "wattage": 8188,
      "wertmuller": 8189,
      "xxx": 8190,
      "xerox": 8191,
      "zombie": 8192,
      "##culture": 8193,
      "##heart": 8194,
      "inestimable": 8195,
      "inadequ": 8196,
      "injects": 8197,
      "inquisitive": 8198,
      "tolerate": 8199,
      "stellar": 8200,
      "stallone": 8201,
      "beguiling": 8202,
      "anemic": 8203,
      "supremely": 8204,
      "chinese": 8205,
      "chicago": 8206,
      "ennui": 8207,
      "enriched": 8208,
      "alcatraz": 8209,
      "unapolog": 8210,
      "shoddy": 8211,
      "##thodox": 8212,
      "concession": 8213,
      "conundrum": 8214,
      "diversion": 8215,
      "soccer": 8216,
      "proceedings": 8217,
      "clothes": 8218,
      "hispanic": 8219,
      "manufactured": 8220,
      "flibbertigibb": 8221,
      "flailing": 8222,
      "goodfellas": 8223,
      "arbitr": 8224,
      "blimey": 8225,
      "bluescreen": 8226,
      "blaxploitation": 8227,
      "prejudice": 8228,
      "disintegr": 8229,
      "disposable": 8230,
      "disbelief": 8231,
      "dissecting": 8232,
      "disorientated": 8233,
      "subconscious": 8234,
      "overworked": 8235,
      "overproduced": 8236,
      "telegraphed": 8237,
      "interpretation": 8238,
      "screenwriters": 8239,
      "minutiae": 8240,
      "collegiate": 8241,
      "independent": 8242,
      "chekhov": 8243,
      "knoxville": 8244,
      "obligatory": 8245,
      "musclefest": 8246,
      "inconsistent": 8247,
      "histrionics": 8248,
      "highlighted": 8249,
      "phenomen": 8250,
      "soldiers": 8251,
      "supernatural": 8252,
      "margarita": 8253,
      "undisciplined": 8254,
      "undeterminable": 8255,
      "hooliganism": 8256,
      "invigorating": 8257,
      "standoffish": 8258,
      "admirably": 8259,
      "grandparents": 8260,
      "transvestite": 8261,
      "nonjudgmental": 8262,
      "corporate": 8263,
      "horrendously": 8264,
      "rhapsod": 8265,
      "crowdpleaser": 8266,
      "simpleminded": 8267,
      "idiosyncratic": 8268,
      "conspicuously": 8269,
      "milquetoast": 8270,
      "unrecoverable": 8271,
      "pantheon": 8272,
      "incomprehensible": 8273,
      "volletta": 8274,
      "implausible": 8275,
      "gyllenhaal": 8276,
      "krawczyk": 8277,
      "flibbertigibbet": 8278,
      "000": 8279,
      "18": 8280,
      "29": 8281,
      "24": 8282,
      "21": 8283,
      "22": 8284,
      "3d": 8285,
      "48": 8286,
      "50": 8287,
      "60": 8288,
      "60s": 8289,
      "99": 8290,
      "ay": 8291,
      "ail": 8292,
      "aest": 8293,
      "aust": 8294,
      "auster": 8295,
      "bil": 8296,
      "bot": 8297,
      "bop": 8298,
      "bick": 8299,
      "bile": 8300,
      "bath": 8301,
      "bumb": 8302,
      "bors": 8303,
      "bidd": 8304,
      "borr": 8305,
      "boll": 8306,
      "bush": 8307,
      "bitten": 8308,
      "billy": 8309,
      "bump": 8310,
      "birming": 8311,
      "battered": 8312,
      "baked": 8313,
      "bibb": 8314,
      "busts": 8315,
      "ced": 8316,
      "cul": 8317,
      "coo": 8318,
      "cro": 8319,
      "cain": 8320,
      "cere": 8321,
      "civ": 8322,
      "cod": 8323,
      "cath": 8324,
      "cower": 8325,
      "copp": 8326,
      "curd": 8327,
      "code": 8328,
      "cinder": 8329,
      "cooper": 8330,
      "creek": 8331,
      "don": 8332,
      "dit": 8333,
      "dut": 8334,
      "dro": 8335,
      "dant": 8336,
      "dough": 8337,
      "dise": 8338,
      "dash": 8339,
      "dates": 8340,
      "dots": 8341,
      "dup": 8342,
      "dork": 8343,
      "donna": 8344,
      "ditty": 8345,
      "ditched": 8346,
      "eb": 8347,
      "ein": 8348,
      "eight": 8349,
      "esc": 8350,
      "estr": 8351,
      "eee": 8352,
      "eerie": 8353,
      "esque": 8354,
      "fo": 8355,
      "fing": 8356,
      "fen": 8357,
      "fon": 8358,
      "fly": 8359,
      "fie": 8360,
      "fist": 8361,
      "fable": 8362,
      "fide": 8363,
      "fade": 8364,
      "fret": 8365,
      "folly": 8366,
      "flying": 8367,
      "faint": 8368,
      "favors": 8369,
      "foster": 8370,
      "fizz": 8371,
      "gain": 8372,
      "gig": 8373,
      "gand": 8374,
      "gere": 8375,
      "gard": 8376,
      "gary": 8377,
      "gaz": 8378,
      "gian": 8379,
      "grem": 8380,
      "gaps": 8381,
      "garc": 8382,
      "hil": 8383,
      "hers": 8384,
      "hur": 8385,
      "hem": 8386,
      "hast": 8387,
      "hust": 8388,
      "hated": 8389,
      "hates": 8390,
      "hank": 8391,
      "hosp": 8392,
      "hudlin": 8393,
      "hiding": 8394,
      "hurry": 8395,
      "hanna": 8396,
      "iv": 8397,
      "jr": 8398,
      "jan": 8399,
      "jane": 8400,
      "jump": 8401,
      "james": 8402,
      "judd": 8403,
      "jams": 8404,
      "ka": 8405,
      "ko": 8406,
      "kh": 8407,
      "kate": 8408,
      "kink": 8409,
      "kier": 8410,
      "kibb": 8411,
      "lam": 8412,
      "lap": 8413,
      "lone": 8414,
      "lens": 8415,
      "lull": 8416,
      "lake": 8417,
      "lug": 8418,
      "lyn": 8419,
      "lament": 8420,
      "lisp": 8421,
      "lashing": 8422,
      "laced": 8423,
      "mt": 8424,
      "mé": 8425,
      "ment": 8426,
      "mall": 8427,
      "mib": 8428,
      "morr": 8429,
      "mired": 8430,
      "mitch": 8431,
      "matt": 8432,
      "mask": 8433,
      "maze": 8434,
      "mothman": 8435,
      "ny": 8436,
      "næ": 8437,
      "nad": 8438,
      "nap": 8439,
      "nary": 8440,
      "nach": 8441,
      "naz": 8442,
      "natter": 8443,
      "nerv": 8444,
      "nesb": 8445,
      "oun": 8446,
      "ood": 8447,
      "ops": 8448,
      "oeu": 8449,
      "ozp": 8450,
      "ple": 8451,
      "pess": 8452,
      "pim": 8453,
      "pir": 8454,
      "pill": 8455,
      "pand": 8456,
      "pip": 8457,
      "pelling": 8458,
      "porr": 8459,
      "pots": 8460,
      "paste": 8461,
      "pier": 8462,
      "pbs": 8463,
      "pyth": 8464,
      "pabl": 8465,
      "piles": 8466,
      "pants": 8467,
      "pitted": 8468,
      "pissed": 8469,
      "pours": 8470,
      "ré": 8471,
      "rer": 8472,
      "rat": 8473,
      "ring": 8474,
      "rou": 8475,
      "ram": 8476,
      "rally": 8477,
      "rain": 8478,
      "rating": 8479,
      "rue": 8480,
      "rif": 8481,
      "rage": 8482,
      "rumb": 8483,
      "ruth": 8484,
      "rural": 8485,
      "rising": 8486,
      "rotten": 8487,
      "rigor": 8488,
      "ritter": 8489,
      "rustic": 8490,
      "sly": 8491,
      "sas": 8492,
      "sie": 8493,
      "sop": 8494,
      "sack": 8495,
      "sau": 8496,
      "sord": 8497,
      "sque": 8498,
      "samp": 8499,
      "selves": 8500,
      "six": 8501,
      "sessions": 8502,
      "ta": 8503,
      "tin": 8504,
      "tad": 8505,
      "tab": 8506,
      "tag": 8507,
      "tem": 8508,
      "tact": 8509,
      "tense": 8510,
      "taw": 8511,
      "tang": 8512,
      "tiss": 8513,
      "tics": 8514,
      "tins": 8515,
      "tank": 8516,
      "tug": 8517,
      "tail": 8518,
      "trop": 8519,
      "tempt": 8520,
      "tabl": 8521,
      "tables": 8522,
      "upt": 8523,
      "vu": 8524,
      "vain": 8525,
      "voc": 8526,
      "void": 8527,
      "wil": 8528,
      "west": 8529,
      "wig": 8530,
      "wav": 8531,
      "wake": 8532,
      "wives": 8533,
      "wels": 8534,
      "wounds": 8535,
      "yard": 8536,
      "yaw": 8537,
      "yelling": 8538,
      "yidd": 8539,
      "yale": 8540,
      "yank": 8541,
      "zen": 8542,
      "zeal": 8543,
      "zaid": 8544,
      "zipp": 8545,
      "zingers": 8546,
      "##ae": 8547,
      "##aul": 8548,
      "##aver": 8549,
      "##aign": 8550,
      "##aults": 8551,
      "##ni": 8552,
      "##nie": 8553,
      "##nest": 8554,
      "##nage": 8555,
      "##nings": 8556,
      "##nible": 8557,
      "##napp": 8558,
      "##note": 8559,
      "##number": 8560,
      "##ev": 8561,
      "##epp": 8562,
      "##eky": 8563,
      "##eates": 8564,
      "##eze": 8565,
      "##efs": 8566,
      "##rat": 8567,
      "##ris": 8568,
      "##rom": 8569,
      "##rated": 8570,
      "##rously": 8571,
      "##rational": 8572,
      "##rantly": 8573,
      "##rase": 8574,
      "##ronistic": 8575,
      "##rinated": 8576,
      "##las": 8577,
      "##lay": 8578,
      "##lance": 8579,
      "##lif": 8580,
      "##lash": 8581,
      "##lins": 8582,
      "##lastic": 8583,
      "##lorious": 8584,
      "##looper": 8585,
      "##laim": 8586,
      "##linking": 8587,
      "##gon": 8588,
      "##gle": 8589,
      "##gap": 8590,
      "##gery": 8591,
      "##gical": 8592,
      "##green": 8593,
      "##ggin": 8594,
      "##gman": 8595,
      "##gio": 8596,
      "##uing": 8597,
      "##ura": 8598,
      "##uff": 8599,
      "##under": 8600,
      "##ucc": 8601,
      "##ugu": 8602,
      "##dul": 8603,
      "##dingly": 8604,
      "##dry": 8605,
      "##dsy": 8606,
      "##dging": 8607,
      "##depend": 8608,
      "##ik": 8609,
      "##iqu": 8610,
      "##ios": 8611,
      "##iac": 8612,
      "##iated": 8613,
      "##iens": 8614,
      "##iber": 8615,
      "##ifully": 8616,
      "##ivers": 8617,
      "##iked": 8618,
      "##ivering": 8619,
      "##ok": 8620,
      "##oel": 8621,
      "##oated": 8622,
      "##overs": 8623,
      "##oons": 8624,
      "##ki": 8625,
      "##ker": 8626,
      "##kers": 8627,
      "##kum": 8628,
      "##mm": 8629,
      "##mly": 8630,
      "##mit": 8631,
      "##mear": 8632,
      "##mate": 8633,
      "##mare": 8634,
      "##mod": 8635,
      "##mingly": 8636,
      "##mets": 8637,
      "##minsky": 8638,
      "##mudge": 8639,
      "##mphet": 8640,
      "##té": 8641,
      "##tes": 8642,
      "##ture": 8643,
      "##ties": 8644,
      "##tingly": 8645,
      "##twe": 8646,
      "##tgen": 8647,
      "##takes": 8648,
      "##sch": 8649,
      "##set": 8650,
      "##sum": 8651,
      "##fy": 8652,
      "##fore": 8653,
      "##ford": 8654,
      "##fts": 8655,
      "##father": 8656,
      "##fident": 8657,
      "##fael": 8658,
      "##ference": 8659,
      "##fingers": 8660,
      "##front": 8661,
      "##yal": 8662,
      "##yce": 8663,
      "##yish": 8664,
      "##ysc": 8665,
      "##cal": 8666,
      "##can": 8667,
      "##cus": 8668,
      "##cated": 8669,
      "##cip": 8670,
      "##cage": 8671,
      "##celess": 8672,
      "##case": 8673,
      "##ciety": 8674,
      "##xual": 8675,
      "##xistent": 8676,
      "##vre": 8677,
      "##vol": 8678,
      "##vably": 8679,
      "##vability": 8680,
      "##voked": 8681,
      "##zil": 8682,
      "##zens": 8683,
      "##hap": 8684,
      "##hash": 8685,
      "##hots": 8686,
      "##hops": 8687,
      "##hearted": 8688,
      "##held": 8689,
      "##pes": 8690,
      "##pit": 8691,
      "##part": 8692,
      "##pia": 8693,
      "##pole": 8694,
      "##bes": 8695,
      "##bal": 8696,
      "##bur": 8697,
      "##bone": 8698,
      "##bance": 8699,
      "##bage": 8700,
      "##buck": 8701,
      "##wn": 8702,
      "##wide": 8703,
      "##wage": 8704,
      "##water": 8705,
      "##wits": 8706,
      "##wanna": 8707,
      "##90": 8708,
      "##38": 8709,
      "##ïve": 8710,
      "##ja": 8711,
      "##jur": 8712,
      "##jam": 8713,
      "##jug": 8714,
      "##üt": 8715,
      "##20": 8716,
      "ther": 8717,
      "thur": 8718,
      "thri": 8719,
      "thump": 8720,
      "thirty": 8721,
      "thunder": 8722,
      "##inn": 8723,
      "##ini": 8724,
      "##inas": 8725,
      "##inth": 8726,
      "##inally": 8727,
      "##inably": 8728,
      "##inching": 8729,
      "##inently": 8730,
      "##ern": 8731,
      "##erk": 8732,
      "##erid": 8733,
      "##eringly": 8734,
      "##erving": 8735,
      "##erior": 8736,
      "##erinas": 8737,
      "theor": 8738,
      "theory": 8739,
      "theories": 8740,
      "##eses": 8741,
      "##eserved": 8742,
      "##esville": 8743,
      "##ndi": 8744,
      "##ndes": 8745,
      "##nding": 8746,
      "##ndon": 8747,
      "##ndig": 8748,
      "##ndry": 8749,
      "##atose": 8750,
      "##ators": 8751,
      "##ativeness": 8752,
      "##atuated": 8753,
      "##atements": 8754,
      "##atfalls": 8755,
      "##aturity": 8756,
      "##inge": 8757,
      "##ingent": 8758,
      "##inglorious": 8759,
      "##ora": 8760,
      "##orce": 8761,
      "##orating": 8762,
      "##orif": 8763,
      "##orily": 8764,
      "##oria": 8765,
      "##orize": 8766,
      "##enance": 8767,
      "##enuous": 8768,
      "##encies": 8769,
      "##enlooper": 8770,
      "##onry": 8771,
      "##onoun": 8772,
      "##onlight": 8773,
      "##arged": 8774,
      "andro": 8775,
      "##oufl": 8776,
      "##ede": 8777,
      "##eds": 8778,
      "##alent": 8779,
      "##alism": 8780,
      "##alia": 8781,
      "##alanced": 8782,
      "##almed": 8783,
      "##aliation": 8784,
      "##itut": 8785,
      "##itism": 8786,
      "##itching": 8787,
      "##iteness": 8788,
      "##itator": 8789,
      "##any": 8790,
      "##anut": 8791,
      "##anation": 8792,
      "##anky": 8793,
      "##anella": 8794,
      "##isi": 8795,
      "##iso": 8796,
      "##isk": 8797,
      "##isc": 8798,
      "##iser": 8799,
      "##isim": 8800,
      "##isingly": 8801,
      "##isions": 8802,
      "##isans": 8803,
      "##isiting": 8804,
      "##isco": 8805,
      "##iscover": 8806,
      "##icid": 8807,
      "##icable": 8808,
      "##icine": 8809,
      "##icated": 8810,
      "##iccated": 8811,
      "inact": 8812,
      "inart": 8813,
      "instruct": 8814,
      "inoff": 8815,
      "injur": 8816,
      "tock": 8817,
      "tooth": 8818,
      "town": 8819,
      "##reled": 8820,
      "##repit": 8821,
      "##omy": 8822,
      "##omed": 8823,
      "##omic": 8824,
      "##iled": 8825,
      "##ilib": 8826,
      "##ilian": 8827,
      "##ilizing": 8828,
      "##iloqu": 8829,
      "##ilitude": 8830,
      "##leep": 8831,
      "##leted": 8832,
      "##else": 8833,
      "##elina": 8834,
      "##asper": 8835,
      "##asph": 8836,
      "##ction": 8837,
      "##ctrinated": 8838,
      "##ionables": 8839,
      "##otage": 8840,
      "##uto": 8841,
      "##uted": 8842,
      "##uttering": 8843,
      "stoo": 8844,
      "stable": 8845,
      "stack": 8846,
      "stult": 8847,
      "static": 8848,
      "stately": 8849,
      "sturd": 8850,
      "stores": 8851,
      "stoked": 8852,
      "statements": 8853,
      "stuttering": 8854,
      "##stem": 8855,
      "##stop": 8856,
      "##storm": 8857,
      "##stage": 8858,
      "##steric": 8859,
      "##stasy": 8860,
      "##stopp": 8861,
      "##veying": 8862,
      "beck": 8863,
      "beac": 8864,
      "begging": 8865,
      "bending": 8866,
      "##ulus": 8867,
      "##ulently": 8868,
      "##ularly": 8869,
      "##ulnerable": 8870,
      "mold": 8871,
      "molin": 8872,
      "mopes": 8873,
      "moonlight": 8874,
      "anar": 8875,
      "anach": 8876,
      "ants": 8877,
      "ante": 8878,
      "anger": 8879,
      "##cha": 8880,
      "##chi": 8881,
      "##cher": 8882,
      "##cherous": 8883,
      "##charged": 8884,
      "##cement": 8885,
      "##raper": 8886,
      "##raved": 8887,
      "##rading": 8888,
      "##ieu": 8889,
      "rea": 8890,
      "reel": 8891,
      "rept": 8892,
      "reject": 8893,
      "regg": 8894,
      "relev": 8895,
      "releg": 8896,
      "relevant": 8897,
      "relying": 8898,
      "reeks": 8899,
      "retains": 8900,
      "repressed": 8901,
      "reefs": 8902,
      "rehash": 8903,
      "reeses": 8904,
      "recharged": 8905,
      "##essful": 8906,
      "##ety": 8907,
      "##ette": 8908,
      "##etyp": 8909,
      "##etek": 8910,
      "##etball": 8911,
      "##owell": 8912,
      "whet": 8913,
      "whence": 8914,
      "whiny": 8915,
      "wheel": 8916,
      "aspar": 8917,
      "asleep": 8918,
      "wittgen": 8919,
      "##idi": 8920,
      "##idy": 8921,
      "##idated": 8922,
      "##idget": 8923,
      "##irk": 8924,
      "##olf": 8925,
      "##olong": 8926,
      "##olical": 8927,
      "##olved": 8928,
      "##olini": 8929,
      "sudsy": 8930,
      "suicid": 8931,
      "chest": 8932,
      "chain": 8933,
      "chos": 8934,
      "churn": 8935,
      "chord": 8936,
      "chump": 8937,
      "chai": 8938,
      "churns": 8939,
      "china": 8940,
      "chatty": 8941,
      "chateau": 8942,
      "chelse": 8943,
      "##verent": 8944,
      "##versy": 8945,
      "##ader": 8946,
      "##adows": 8947,
      "##adorn": 8948,
      "ford": 8949,
      "forest": 8950,
      "forged": 8951,
      "forster": 8952,
      "##terations": 8953,
      "##terior": 8954,
      "comics": 8955,
      "compromising": 8956,
      "comfy": 8957,
      "comatose": 8958,
      "moves": 8959,
      "##ooge": 8960,
      "##ayed": 8961,
      "##sein": 8962,
      "##seat": 8963,
      "##aki": 8964,
      "##abic": 8965,
      "##abilities": 8966,
      "##abricated": 8967,
      "##abolical": 8968,
      "##unt": 8969,
      "##uns": 8970,
      "##esto": 8971,
      "##estion": 8972,
      "##estling": 8973,
      "##estinian": 8974,
      "##urs": 8975,
      "##urally": 8976,
      "##urpr": 8977,
      "##urrect": 8978,
      "##uristic": 8979,
      "##urotic": 8980,
      "lies": 8981,
      "likable": 8982,
      "lika": 8983,
      "youth": 8984,
      "send": 8985,
      "seizing": 8986,
      "seeping": 8987,
      "sealed": 8988,
      "sewage": 8989,
      "section": 8990,
      "##amie": 8991,
      "##amity": 8992,
      "##amedly": 8993,
      "##rium": 8994,
      "##rivel": 8995,
      "##umpt": 8996,
      "##uments": 8997,
      "##ummy": 8998,
      "enact": 8999,
      "enlight": 9000,
      "encomp": 9001,
      "##rovoked": 9002,
      "##roversy": 9003,
      "aliens": 9004,
      "alterations": 9005,
      "##agus": 9006,
      "##agree": 9007,
      "##agged": 9008,
      "##aggers": 9009,
      "##emous": 9010,
      "##emma": 9011,
      "exists": 9012,
      "exiled": 9013,
      "exasper": 9014,
      "exterior": 9015,
      "unle": 9016,
      "unac": 9017,
      "unash": 9018,
      "ungu": 9019,
      "uncer": 9020,
      "ungain": 9021,
      "unrom": 9022,
      "unadorn": 9023,
      "shout": 9024,
      "shall": 9025,
      "shatter": 9026,
      "shtick": 9027,
      "shrie": 9028,
      "shaken": 9029,
      "shift": 9030,
      "shorter": 9031,
      "shmear": 9032,
      "sherid": 9033,
      "shrivel": 9034,
      "##thy": 9035,
      "##thur": 9036,
      "##thead": 9037,
      "##istakable": 9038,
      "contain": 9039,
      "convent": 9040,
      "conned": 9041,
      "consequ": 9042,
      "conveying": 9043,
      "wore": 9044,
      "frantic": 9045,
      "fringe": 9046,
      "##illing": 9047,
      "dey": 9048,
      "dear": 9049,
      "decom": 9050,
      "dehuman": 9051,
      "deja": 9052,
[...]
